2020202020202020
2020202020202020
2020202020202020
2020202020202020
2020202020202020
2020202020202020
2020202020202020
2020202020202020
2020202020202020
2020202020202020
2020202020202020
2020202020202020
2020202020202020
2020202020202020
2020202020202020
2020202020202020
2020202020202020
2020202020202020
2020202020202020
2020202020202020
ffff962020202020
2020202020202020
2020202020202024
8c8c5ffeffff2020
2020202020202020
202020202020208c
747474ffffff7474
ff74202020202020
2020202020202020
20202074ffffffff
74fffffffffe2020
2020202020202020
20202020202074ff
ff747420208cffff
ff20202020202020
2020202020202020
202074ffff522020
ca74fffffe202020
2020202020202020
202020202020f1ff
ff74202474ffff74
2020202020202020
2020202020202020
20202074fffffeff
ffff742020202020
2020202020202020
2020202020202074
ffffffffff742c20
2020202020202020
2020202020202020
20202074ffffffff
7461202020202020
2020202020202020
2020202020202074
ffffff7420202020
2020202020202020
2020202020202020
202074ffffffff74
2020202020202020
2020202020202020
202020202474ffff
ff74ffff20202020
2020202020202020
2020202020202020
feffff7420feff74
2020202020202020
2020202020202020
202020c8fffffe20
96ffff7420202020
2020202020202020
2020202020202074
ff74202074fffffe
2020202020202020
2020202020202020
20202074ff7420fe
ffff742020202020
2020202020202020
2020202020202074
ff7474fffffe2020
2020202020202020
2020202020202020
20202074ffffffff
7420202020202020
2020202020202020
2020202020202020
74ff747420202020
2020202020202020
2020202020202020
2020202020202020
2020202020202020
2020202020202020
2020202020202020
2020202020202020
2020202020202020
2020202020202020
2020202020202020
2020202020202020
2020202020202020
