2020202020202020
2020202020202020
2020202020202020
2020202020202020
2020202020202020
2020202020202020
2020202020202020
2020202020202020
2020202020202020
2020202020202020
2020202020202020
2020202020202020
2020202020202020
2020202020202020
2020202020202020
2020202020202020
2020202020202020
2020202020202020
2020202020202020
2020202020202020
ffffa02020202020
2020202020202020
2020202020202029
878780f4ffff2020
2020202020202020
2020202020202087
d6d6d6ffffffd6d6
ffd6202020202020
2020202020202020
202020d6ffffffff
d6fffffffff42020
2020202020202020
202020202020d6ff
ffd6d6202087ffff
ff20202020202020
2020202020202020
2020d6ffff732020
c2d6fffff4202020
2020202020202020
202020202020ffff
ffd62029d6ffffd6
2020202020202020
2020202020202020
202020d6fffff4ff
ffffd62020202020
2020202020202020
20202020202020d6
ffffffffffd66720
2020202020202020
2020202020202020
202020d6ffffffff
d68d202020202020
2020202020202020
20202020202020d6
ffffffd620202020
2020202020202020
2020202020202020
2020d6ffffffffd6
2020202020202020
2020202020202020
2020202029d6ffff
ffd6ffff20202020
2020202020202020
2020202020202020
f4ffffd620f4ffd6
2020202020202020
2020202020202020
202020fffffff420
a0ffffd620202020
2020202020202020
20202020202020d6
ffd62020d6fffff4
2020202020202020
2020202020202020
202020d6ffd620f4
ffffd62020202020
2020202020202020
20202020202020d6
ffd6d6fffff42020
2020202020202020
2020202020202020
202020d6ffffffff
d620202020202020
2020202020202020
2020202020202020
d6ffd6d620202020
2020202020202020
2020202020202020
2020202020202020
2020202020202020
2020202020202020
2020202020202020
2020202020202020
2020202020202020
2020202020202020
2020202020202020
2020202020202020
2020202020202020
