2020202020202020
2020202020202020
2020202020202020
2020202020202020
2020202020202020
2020202020202020
2020202020202020
2020202020202020
2020202020202020
2020202020202020
2020202020202020
2020202020202020
2020202020202020
2020202020202020
2020202020202020
2020202020202020
2020202020202020
2020202020202020
2020202020202020
2020202020202020
cbcb4c2020202020
2020202020202020
2020202020202020
545425a6cbcb2020
2020202020202020
2020202020202054
585858cbcbcb5858
cb58202020202020
2020202020202020
20202058cbcbcbcb
58cbcbcbcba62020
2020202020202020
20202020202058cb
cb5858202054cbcb
cb20202020202020
2020202020202020
202058cbcb202020
7858cbcba6202020
2020202020202020
20202020202073cb
cb58202058cbcb58
2020202020202020
2020202020202020
20202058cbcba6cb
cbcb582020202020
2020202020202020
2020202020202058
cbcbcbcbcb583820
2020202020202020
2020202020202020
20202058cbcbcbcb
585a202020202020
2020202020202020
2020202020202058
cbcbcb5820202020
2020202020202020
2020202020202020
202058cbcbcbcb58
2020202020202020
2020202020202020
202020202058cbcb
cb58cbcb20202020
2020202020202020
2020202020202020
a6cbcb5820a6cb58
2020202020202020
2020202020202020
20202067cbcba620
4ccbcb5820202020
2020202020202020
2020202020202058
cb58202058cbcba6
2020202020202020
2020202020202020
20202058cb5820a6
cbcb582020202020
2020202020202020
2020202020202058
cb5858cbcba62020
2020202020202020
2020202020202020
20202058cbcbcbcb
5820202020202020
2020202020202020
2020202020202020
58cb585820202020
2020202020202020
2020202020202020
2020202020202020
2020202020202020
2020202020202020
2020202020202020
2020202020202020
2020202020202020
2020202020202020
2020202020202020
2020202020202020
2020202020202020
