2020202020202020
2020202020202020
2020202020202020
2020202020202020
2020202020202020
2020202020202020
2020202020202020
2020202020202020
2020202020202020
2020202020202020
2020202020202020
2020202020202020
2020202020202020
2020202020202020
2020202020202020
2020202020202020
2020202020202020
2020202020202020
2020202020202020
2020202020202020
bfbf382020202020
2020202020202020
2020202020202020
27270179bfbf2020
2020202020202020
2020202020202027
555555bfbfbf5555
bf55202020202020
2020202020202020
20202055bfbfbfbf
55bfbfbfbf792020
2020202020202020
20202020202055bf
bf5555202027bfbf
bf20202020202020
2020202020202020
202055bfbf202020
6d55bfbf79202020
2020202020202020
2020202020204fbf
bf55202055bfbf55
2020202020202020
2020202020202020
20202055bfbf79bf
bfbf552020202020
2020202020202020
2020202020202055
bfbfbfbfbf552020
2020202020202020
2020202020202020
20202055bfbfbfbf
5552202020202020
2020202020202020
2020202020202055
bfbfbf5520202020
2020202020202020
2020202020202020
202055bfbfbfbf55
2020202020202020
2020202020202020
202020202055bfbf
bf55bfbf20202020
2020202020202020
2020202020202020
79bfbf552079bf55
2020202020202020
2020202020202020
20202065bfbf7920
38bfbf5520202020
2020202020202020
2020202020202055
bf55202055bfbf79
2020202020202020
2020202020202020
20202055bf552079
bfbf552020202020
2020202020202020
2020202020202055
bf5555bfbf792020
2020202020202020
2020202020202020
20202055bfbfbfbf
5520202020202020
2020202020202020
2020202020202020
55bf555520202020
2020202020202020
2020202020202020
2020202020202020
2020202020202020
2020202020202020
2020202020202020
2020202020202020
2020202020202020
2020202020202020
2020202020202020
2020202020202020
2020202020202020
