2020202020202020
2020202020202020
2020202020202020
2020202020202020
2020202020202020
2020202020202020
2020202020202020
2020202020202020
2020202020202020
2020202020202020
2020202020202020
2020202020202020
2020202020202020
2020202020202020
2020202020202020
2020202020202020
2020202020202020
2020202020202020
2020202020202020
2020202020202020
9191202020202020
2020202020202020
2020202020202020
0101202c91912020
2020202020202020
2020202020202001
0404049191910404
9104202020202020
2020202020202020
2020200491919191
04919191912c2020
2020202020202020
2020202020200491
9104042020019191
9120202020202020
2020202020202020
2020049191202020
200491912c202020
2020202020202020
2020202020205291
9104202004919104
2020202020202020
2020202020202020
2020200491912c91
9191042020202020
2020202020202020
2020202020202004
9191919191042020
2020202020202020
2020202020202020
2020200491919191
040e202020202020
2020202020202020
2020202020202004
9191910420202020
2020202020202020
2020202020202020
2020049191919104
2020202020202020
2020202020202020
2020202020049191
9104919120202020
2020202020202020
2020202020202020
2c919104202c9104
2020202020202020
2020202020202020
2020203e91912c20
2091910420202020
2020202020202020
2020202020202004
910420200491912c
2020202020202020
2020202020202020
202020049104202c
9191042020202020
2020202020202020
2020202020202004
91040491912c2020
2020202020202020
2020202020202020
2020200491919191
0420202020202020
2020202020202020
2020202020202020
0491040420202020
2020202020202020
2020202020202020
2020202020202020
2020202020202020
2020202020202020
2020202020202020
2020202020202020
2020202020202020
2020202020202020
2020202020202020
2020202020202020
2020202020202020
