2020202020202020
2020202020202020
2020202020202020
2020202020202020
2020202020202020
2020202020202020
2020202020202020
2020202020202020
2020202020202020
2020202020202020
2020202020202020
2020202020202020
2020202020202020
2020202020202020
2020202020202020
2020202020202020
2020202020202020
2020202020202020
2020202020202020
2020202020202020
ffffbb2020202020
2020202020202020
2020202020202035
9191c8ffffff2020
2020202020202020
2020202020202091
f2f2f2fffffff2f2
fff2202020202020
2020202020202020
202020f2ffffffff
f2ffffffffff2020
2020202020202020
202020202020f2ff
fff2f2202091ffff
ff20202020202020
2020202020202020
2020f2ffff762020
fff2ffffff202020
2020202020202020
202020202020ffff
fff22035f2fffff2
2020202020202020
2020202020202020
202020f2ffffffff
fffff22020202020
2020202020202020
20202020202020f2
fffffffffff28a20
2020202020202020
2020202020202020
202020f2ffffffff
f2d9202020202020
2020202020202020
20202020202020f2
fffffff220202020
2020202020202020
2020202020202020
2020f2fffffffff2
2020202020202020
2020202020202020
2020202035f2ffff
fff2ffff20202020
2020202020202020
2020202020202020
fffffff220fffff2
2020202020202020
2020202020202020
202020fbffffff20
bbfffff220202020
2020202020202020
20202020202020f2
fff22020f2ffffff
2020202020202020
2020202020202020
202020f2fff220ff
fffff22020202020
2020202020202020
20202020202020f2
fff2f2ffffff2020
2020202020202020
2020202020202020
202020f2ffffffff
f220202020202020
2020202020202020
2020202020202020
f2fff2f220202020
2020202020202020
2020202020202020
2020202020202020
2020202020202020
2020202020202020
2020202020202020
2020202020202020
2020202020202020
2020202020202020
2020202020202020
2020202020202020
2020202020202020
