2020202020202020
2020202020202020
2020202020202020
2020202020202020
2020202020202020
2020202020202020
2020202020202020
2020202020202020
2020202020202020
2020202020202020
2020202020202020
2020202020202020
2020202020202020
2020202020202020
2020202020202020
2020202020202020
2020202020202020
2020202020202020
2020202020202020
2020202020202020
ffffac2020202020
2020202020202020
2020202020202029
8d8d82ffffff2020
2020202020202020
202020202020208d
eaeaeaffffffeaea
ffea202020202020
2020202020202020
202020eaffffffff
eaffffffffff2020
2020202020202020
202020202020eaff
ffeaea20208dffff
ff20202020202020
2020202020202020
2020eaffff752020
c8eaffffff202020
2020202020202020
202020202020ffff
ffea2029eaffffea
2020202020202020
2020202020202020
202020eaffffffff
ffffea2020202020
2020202020202020
20202020202020ea
ffffffffffea6b20
2020202020202020
2020202020202020
202020eaffffffff
eabf202020202020
2020202020202020
20202020202020ea
ffffffea20202020
2020202020202020
2020202020202020
2020eaffffffffea
2020202020202020
2020202020202020
2020202029eaffff
ffeaffff20202020
2020202020202020
2020202020202020
ffffffea20ffffea
2020202020202020
2020202020202020
202020ffffffff20
acffffea20202020
2020202020202020
20202020202020ea
ffea2020eaffffff
2020202020202020
2020202020202020
202020eaffea20ff
ffffea2020202020
2020202020202020
20202020202020ea
ffeaeaffffff2020
2020202020202020
2020202020202020
202020eaffffffff
ea20202020202020
2020202020202020
2020202020202020
eaffeaea20202020
2020202020202020
2020202020202020
2020202020202020
2020202020202020
2020202020202020
2020202020202020
2020202020202020
2020202020202020
2020202020202020
2020202020202020
2020202020202020
2020202020202020
