2020202020202020
2020202020202020
2020202020202020
2020202020202020
2020202020202020
2020202020202020
2020202020202020
2020202020202020
2020202020202020
2020202020202020
2020202020202020
2020202020202020
2020202020202020
2020202020202020
2020202020202020
2020202020202020
2020202020202020
2020202020202020
2020202020202020
2020202020202020
ffff882020202020
2020202020202020
2020202020202029
878780dcffff2020
2020202020202020
2020202020202087
d6d6d6ffffffd6d6
ffd6202020202020
2020202020202020
202020d6ffffffff
d6ffffffffdc2020
2020202020202020
202020202020d6ff
ffd6d6202087ffff
ff20202020202020
2020202020202020
2020d6ffff732020
c2d6ffffdc202020
2020202020202020
202020202020ffff
ffd62029d6ffffd6
2020202020202020
2020202020202020
202020d6ffffdcff
ffffd62020202020
2020202020202020
20202020202020d6
ffffffffffd66720
2020202020202020
2020202020202020
202020d6ffffffff
d68d202020202020
2020202020202020
20202020202020d6
ffffffd620202020
2020202020202020
2020202020202020
2020d6ffffffffd6
2020202020202020
2020202020202020
2020202029d6ffff
ffd6ffff20202020
2020202020202020
2020202020202020
dcffffd620dcffd6
2020202020202020
2020202020202020
202020e7ffffdc20
88ffffd620202020
2020202020202020
20202020202020d6
ffd62020d6ffffdc
2020202020202020
2020202020202020
202020d6ffd620dc
ffffd62020202020
2020202020202020
20202020202020d6
ffd6d6ffffdc2020
2020202020202020
2020202020202020
202020d6ffffffff
d620202020202020
2020202020202020
2020202020202020
d6ffd6d620202020
2020202020202020
2020202020202020
2020202020202020
2020202020202020
2020202020202020
2020202020202020
2020202020202020
2020202020202020
2020202020202020
2020202020202020
2020202020202020
2020202020202020
