2020202020202020
2020202020202020
2020202020202020
2020202020202020
2020202020202020
2020202020202020
2020202020202020
2020202020202020
2020202020202020
2020202020202020
2020202020202020
2020202020202020
2020202020202020
2020202020202020
2020202020202020
2020202020202020
2020202020202020
2020202020202020
2020202020202020
2020202020202020
ffffb92020202020
2020202020202020
2020202020202049
e1e1d3ffffff2020
2020202020202020
20202020202020e1
ffffffffffffffff
ffff202020202020
2020202020202020
202020ffffffffff
ffffffffffff2020
2020202020202020
202020202020ffff
ffffff2020e1ffff
ff20202020202020
2020202020202020
2020ffffff762020
ffffffffff202020
2020202020202020
202020202020fcff
ffff2049ffffffff
2020202020202020
2020202020202020
202020ffffffffff
ffffff2020202020
2020202020202020
20202020202020ff
ffffffffffffa520
2020202020202020
2020202020202020
202020ffffffffff
ffff202020202020
2020202020202020
20202020202020ff
ffffffff20202020
2020202020202020
2020202020202020
2020ffffffffffff
2020202020202020
2020202020202020
2020202049ffffff
ffffffff20202020
2020202020202020
2020202020202020
ffffffff20ffffff
2020202020202020
2020202020202020
202020ffffffff20
b9ffffff20202020
2020202020202020
20202020202020ff
ffff2020ffffffff
2020202020202020
2020202020202020
202020ffffff20ff
ffffff2020202020
2020202020202020
20202020202020ff
ffffffffffff2020
2020202020202020
2020202020202020
202020ffffffffff
ff20202020202020
2020202020202020
2020202020202020
ffffffff20202020
2020202020202020
2020202020202020
2020202020202020
2020202020202020
2020202020202020
2020202020202020
2020202020202020
2020202020202020
2020202020202020
2020202020202020
2020202020202020
2020202020202020
