2020202020202020
2020202020202020
2020202020202020
2020202020202020
2020202020202020
2020202020202020
2020202020202020
2020202020202020
2020202020202020
2020202020202020
2020202020202020
2020202020202020
2020202020202020
2020202020202020
2020202020202020
2020202020202020
2020202020202020
2020202020202020
2020202020202020
2020202020202020
ffffb72020202020
2020202020202020
2020202020202029
8989b4ffffff2020
2020202020202020
2020202020202089
e6e6e6ffffffe6e6
ffe6202020202020
2020202020202020
202020e6ffffffff
e6ffffffffff2020
2020202020202020
202020202020e6ff
ffe6e6202089ffff
ff20202020202020
2020202020202020
2020e6ffff762020
fae6ffffff202020
2020202020202020
202020202020ffff
ffe62029e6ffffe6
2020202020202020
2020202020202020
202020e6ffffffff
ffffe62020202020
2020202020202020
20202020202020e6
ffffffffffe66c20
2020202020202020
2020202020202020
202020e6ffffffff
e6d3202020202020
2020202020202020
20202020202020e6
ffffffe620202020
2020202020202020
2020202020202020
2020e6ffffffffe6
2020202020202020
2020202020202020
2020202029e6ffff
ffe6ffff20202020
2020202020202020
2020202020202020
ffffffe620ffffe6
2020202020202020
2020202020202020
202020ffffffff20
b7ffffe620202020
2020202020202020
20202020202020e6
ffe62020e6ffffff
2020202020202020
2020202020202020
202020e6ffe620ff
ffffe62020202020
2020202020202020
20202020202020e6
ffe6e6ffffff2020
2020202020202020
2020202020202020
202020e6ffffffff
e620202020202020
2020202020202020
2020202020202020
e6ffe6e620202020
2020202020202020
2020202020202020
2020202020202020
2020202020202020
2020202020202020
2020202020202020
2020202020202020
2020202020202020
2020202020202020
2020202020202020
2020202020202020
2020202020202020
