2020202020202020
2020202020202020
2020202020202020
2020202020202020
2020202020202020
2020202020202020
2020202020202020
2020202020202020
2020202020202020
2020202020202020
2020202020202020
2020202020202020
2020202020202020
2020202020202020
2020202020202020
2020202020202020
2020202020202020
2020202020202020
2020202020202020
2020202020202020
ffff822020202020
2020202020202020
202020202020201c
7d7d2ddaffff2020
2020202020202020
202020202020207d
505050ffffff5050
ff50202020202020
2020202020202020
20202050ffffffff
50ffffffffda2020
2020202020202020
20202020202050ff
ff505020207dffff
ff20202020202020
2020202020202020
202050ffff202020
c450ffffda202020
2020202020202020
202020202020bfff
ff50201c50ffff50
2020202020202020
2020202020202020
20202050ffffdaff
ffff502020202020
2020202020202020
2020202020202050
ffffffffff504320
2020202020202020
2020202020202020
20202050ffffffff
507c202020202020
2020202020202020
2020202020202050
ffffff5020202020
2020202020202020
2020202020202020
202050ffffffff50
2020202020202020
2020202020202020
202020201c50ffff
ff50ffff20202020
2020202020202020
2020202020202020
daffff5020daff50
2020202020202020
2020202020202020
202020b4ffffda20
82ffff5020202020
2020202020202020
2020202020202050
ff50202050ffffda
2020202020202020
2020202020202020
20202050ff5020da
ffff502020202020
2020202020202020
2020202020202050
ff5050ffffda2020
2020202020202020
2020202020202020
20202050ffffffff
5020202020202020
2020202020202020
2020202020202020
50ff505020202020
2020202020202020
2020202020202020
2020202020202020
2020202020202020
2020202020202020
2020202020202020
2020202020202020
2020202020202020
2020202020202020
2020202020202020
2020202020202020
2020202020202020
