2020202020202020
2020202020202020
2020202020202020
2020202020202020
2020202020202020
2020202020202020
2020202020202020
2020202020202020
2020202020202020
2020202020202020
2020202020202020
2020202020202020
2020202020202020
2020202020202020
2020202020202020
2020202020202020
2020202020202020
2020202020202020
2020202020202020
2020202020202020
ffffff2020202020
2020202020202020
20202020202020ab
ffffffffffff2020
2020202020202020
20202020202020ff
fbfbfbfffffffbfb
fffb202020202020
2020202020202020
202020fbffffffff
fbffffffffff2020
2020202020202020
202020202020fbff
fffbfb2020ffffff
ff20202020202020
2020202020202020
2020fbffff8a2020
fffbffffff202020
2020202020202020
202020202020ffff
fffb20abfbfffffb
2020202020202020
2020202020202020
202020fbffffffff
fffffb2020202020
2020202020202020
20202020202020fb
fffffffffffbbc20
2020202020202020
2020202020202020
202020fbffffffff
fbff202020202020
2020202020202020
20202020202020fb
fffffffb20202020
2020202020202020
2020202020202020
2020fbfffffffffb
2020202020202020
2020202020202020
20202020abfbffff
fffbffff20202020
2020202020202020
2020202020202020
fffffffb20fffffb
2020202020202020
2020202020202020
202020ffffffff20
fffffffb20202020
2020202020202020
20202020202020fb
fffb2020fbffffff
2020202020202020
2020202020202020
202020fbfffb20ff
fffffb2020202020
2020202020202020
20202020202020fb
fffbfbffffff2020
2020202020202020
2020202020202020
202020fbffffffff
fb20202020202020
2020202020202020
2020202020202020
fbfffbfb20202020
2020202020202020
2020202020202020
2020202020202020
2020202020202020
2020202020202020
2020202020202020
2020202020202020
2020202020202020
2020202020202020
2020202020202020
2020202020202020
2020202020202020
