2020202020202020
2020202020202020
2020202020202020
2020202020202020
2020202020202020
2020202020202020
2020202020202020
2020202020202020
2020202020202020
2020202020202020
2020202020202020
2020202020202020
2020202020202020
2020202020202020
2020202020202020
2020202020202020
2020202020202020
2020202020202020
2020202020202020
2020202020202020
ffffff2020202020
2020202020202020
202020202020209a
ffffe7ffffff2020
2020202020202020
20202020202020ff
ffffffffffffffff
ffff202020202020
2020202020202020
202020ffffffffff
ffffffffffff2020
2020202020202020
202020202020ffff
ffffff2020ffffff
ff20202020202020
2020202020202020
2020ffffff8a2020
ffffffffff202020
2020202020202020
202020202020ffff
ffff209affffffff
2020202020202020
2020202020202020
202020ffffffffff
ffffff2020202020
2020202020202020
20202020202020ff
ffffffffffffbe20
2020202020202020
2020202020202020
202020ffffffffff
ffff202020202020
2020202020202020
20202020202020ff
ffffffff20202020
2020202020202020
2020202020202020
2020ffffffffffff
2020202020202020
2020202020202020
202020209affffff
ffffffff20202020
2020202020202020
2020202020202020
ffffffff20ffffff
2020202020202020
2020202020202020
202020ffffffff20
ffffffff20202020
2020202020202020
20202020202020ff
ffff2020ffffffff
2020202020202020
2020202020202020
202020ffffff20ff
ffffff2020202020
2020202020202020
20202020202020ff
ffffffffffff2020
2020202020202020
2020202020202020
202020ffffffffff
ff20202020202020
2020202020202020
2020202020202020
ffffffff20202020
2020202020202020
2020202020202020
2020202020202020
2020202020202020
2020202020202020
2020202020202020
2020202020202020
2020202020202020
2020202020202020
2020202020202020
2020202020202020
2020202020202020
