2020202020202020
2020202020202020
2020202020202020
2020202020202020
2020202020202020
2020202020202020
2020202020202020
2020202020202020
2020202020202020
2020202020202020
2020202020202020
2020202020202020
2020202020202020
2020202020202020
2020202020202020
2020202020202020
2020202020202020
2020202020202020
2020202020202020
2020202020202020
e0e09e2020202020
2020202020202020
2020202020202028
73737ae0e0e02020
2020202020202020
2020202020202073
a1a1a1e0e0e0a1a1
e0a1202020202020
2020202020202020
202020a1e0e0e0e0
a1e0e0e0e0e02020
2020202020202020
202020202020a1e0
e0a1a1202073e0e0
e020202020202020
2020202020202020
2020a1e0e06d2020
aea1e0e0e0202020
2020202020202020
202020202020ffe0
e0a12028a1e0e0a1
2020202020202020
2020202020202020
202020a1e0e0e0e0
e0e0a12020202020
2020202020202020
20202020202020a1
e0e0e0e0e0a15c20
2020202020202020
2020202020202020
202020a1e0e0e0e0
a185202020202020
2020202020202020
20202020202020a1
e0e0e0a120202020
2020202020202020
2020202020202020
2020a1e0e0e0e0a1
2020202020202020
2020202020202020
2020202028a1e0e0
e0a1e0e020202020
2020202020202020
2020202020202020
e0e0e0a120e0e0a1
2020202020202020
2020202020202020
202020f5e0e0e020
9ee0e0a120202020
2020202020202020
20202020202020a1
e0a12020a1e0e0e0
2020202020202020
2020202020202020
202020a1e0a120e0
e0e0a12020202020
2020202020202020
20202020202020a1
e0a1a1e0e0e02020
2020202020202020
2020202020202020
202020a1e0e0e0e0
a120202020202020
2020202020202020
2020202020202020
a1e0a1a120202020
2020202020202020
2020202020202020
2020202020202020
2020202020202020
2020202020202020
2020202020202020
2020202020202020
2020202020202020
2020202020202020
2020202020202020
2020202020202020
2020202020202020
