2020202020202020
2020202020202020
2020202020202020
2020202020202020
2020202020202020
2020202020202020
2020202020202020
2020202020202020
2020202020202020
2020202020202020
2020202020202020
2020202020202020
2020202020202020
2020202020202020
2020202020202020
2020202020202020
2020202020202020
2020202020202020
2020202020202020
2020202020202020
e7e7ef2020202020
2020202020202020
202020202020204a
e7e7e3e7e7e72020
2020202020202020
20202020202020e7
ffffffe7e7e7ffff
e7ff202020202020
2020202020202020
202020ffe7e7e7e7
ffe7e7e7e7e72020
2020202020202020
202020202020ffe7
e7ffff2020e7e7e7
e720202020202020
2020202020202020
2020ffe7e7862020
e7ffe7e7e7202020
2020202020202020
202020202020e7e7
e7ff204affe7e7ff
2020202020202020
2020202020202020
202020ffe7e7e7e7
e7e7ff2020202020
2020202020202020
20202020202020ff
e7e7e7e7e7ffb220
2020202020202020
2020202020202020
202020ffe7e7e7e7
ffff202020202020
2020202020202020
20202020202020ff
e7e7e7ff20202020
2020202020202020
2020202020202020
2020ffe7e7e7e7ff
2020202020202020
2020202020202020
202020204affe7e7
e7ffe7e720202020
2020202020202020
2020202020202020
e7e7e7ff20e7e7ff
2020202020202020
2020202020202020
202020ffe7e7e720
efe7e7ff20202020
2020202020202020
20202020202020ff
e7ff2020ffe7e7e7
2020202020202020
2020202020202020
202020ffe7ff20e7
e7e7ff2020202020
2020202020202020
20202020202020ff
e7ffffe7e7e72020
2020202020202020
2020202020202020
202020ffe7e7e7e7
ff20202020202020
2020202020202020
2020202020202020
ffe7ffff20202020
2020202020202020
2020202020202020
2020202020202020
2020202020202020
2020202020202020
2020202020202020
2020202020202020
2020202020202020
2020202020202020
2020202020202020
2020202020202020
2020202020202020
