2020202020202020
2020202020202020
2020202020202020
2020202020202020
2020202020202020
2020202020202020
2020202020202020
2020202020202020
2020202020202020
2020202020202020
2020202020202020
2020202020202020
2020202020202020
2020202020202020
2020202020202020
2020202020202020
2020202020202020
2020202020202020
2020202020202020
2020202020202020
ffff502020202020
2020202020202020
2020202020202020
5f5f2bdeffff2020
2020202020202020
202020202020205f
6c6c6cffffff6c6c
ff6c202020202020
2020202020202020
2020206cffffffff
6cffffffffde2020
2020202020202020
2020202020206cff
ff6c6c20205fffff
ff20202020202020
2020202020202020
20206cffff202020
b06cffffde202020
2020202020202020
202020202020abff
ff6c20206cffff6c
2020202020202020
2020202020202020
2020206cffffdeff
ffff6c2020202020
2020202020202020
202020202020206c
ffffffffff6c4020
2020202020202020
2020202020202020
2020206cffffffff
6c71202020202020
2020202020202020
202020202020206c
ffffff6c20202020
2020202020202020
2020202020202020
20206cffffffff6c
2020202020202020
2020202020202020
20202020206cffff
ff6cffff20202020
2020202020202020
2020202020202020
deffff6c20deff6c
2020202020202020
2020202020202020
20202082ffffde20
50ffff6c20202020
2020202020202020
202020202020206c
ff6c20206cffffde
2020202020202020
2020202020202020
2020206cff6c20de
ffff6c2020202020
2020202020202020
202020202020206c
ff6c6cffffde2020
2020202020202020
2020202020202020
2020206cffffffff
6c20202020202020
2020202020202020
2020202020202020
6cff6c6c20202020
2020202020202020
2020202020202020
2020202020202020
2020202020202020
2020202020202020
2020202020202020
2020202020202020
2020202020202020
2020202020202020
2020202020202020
2020202020202020
2020202020202020
