2020202020202020
2020202020202020
2020202020202020
2020202020202020
2020202020202020
2020202020202020
2020202020202020
2020202020202020
2020202020202020
2020202020202020
2020202020202020
2020202020202020
2020202020202020
2020202020202020
2020202020202020
2020202020202020
2020202020202020
2020202020202020
2020202020202020
2020202020202020
c3c3202020202020
2020202020202020
2020202020202020
1c1c205ec3c32020
2020202020202020
202020202020201c
282828c3c3c32828
c328202020202020
2020202020202020
20202028c3c3c3c3
28c3c3c3c35e2020
2020202020202020
20202020202028c3
c3282820201cc3c3
c320202020202020
2020202020202020
202028c3c3202020
5228c3c35e202020
2020202020202020
20202020202066c3
c328202028c3c328
2020202020202020
2020202020202020
20202028c3c35ec3
c3c3282020202020
2020202020202020
2020202020202028
c3c3c3c3c3282020
2020202020202020
2020202020202020
20202028c3c3c3c3
283e202020202020
2020202020202020
2020202020202028
c3c3c32820202020
2020202020202020
2020202020202020
202028c3c3c3c328
2020202020202020
2020202020202020
202020202028c3c3
c328c3c320202020
2020202020202020
2020202020202020
5ec3c328205ec328
2020202020202020
2020202020202020
2020204dc3c35e20
20c3c32820202020
2020202020202020
2020202020202028
c328202028c3c35e
2020202020202020
2020202020202020
20202028c328205e
c3c3282020202020
2020202020202020
2020202020202028
c32828c3c35e2020
2020202020202020
2020202020202020
20202028c3c3c3c3
2820202020202020
2020202020202020
2020202020202020
28c3282820202020
2020202020202020
2020202020202020
2020202020202020
2020202020202020
2020202020202020
2020202020202020
2020202020202020
2020202020202020
2020202020202020
2020202020202020
2020202020202020
2020202020202020
