2020202020202020
2020202020202020
2020202020202020
2020202020202020
2020202020202020
2020202020202020
2020202020202020
2020202020202020
2020202020202020
2020202020202020
2020202020202020
2020202020202020
2020202020202020
2020202020202020
2020202020202020
2020202020202020
2020202020202020
2020202020202020
2020202020202020
2020202020202020
ffff502020202020
2020202020202020
2020202020202001
4d4d2bdeffff2020
2020202020202020
202020202020204d
4d4d4dffffff4d4d
ff4d202020202020
2020202020202020
2020204dffffffff
4dffffffffde2020
2020202020202020
2020202020204dff
ff4d4d20204dffff
ff20202020202020
2020202020202020
20204dffff202020
b04dffffde202020
2020202020202020
202020202020abff
ff4d20014dffff4d
2020202020202020
2020202020202020
2020204dffffdeff
ffff4d2020202020
2020202020202020
202020202020204d
ffffffffff4d4020
2020202020202020
2020202020202020
2020204dffffffff
4d71202020202020
2020202020202020
202020202020204d
ffffff4d20202020
2020202020202020
2020202020202020
20204dffffffff4d
2020202020202020
2020202020202020
20202020014dffff
ff4dffff20202020
2020202020202020
2020202020202020
deffff4d20deff4d
2020202020202020
2020202020202020
20202082ffffde20
50ffff4d20202020
2020202020202020
202020202020204d
ff4d20204dffffde
2020202020202020
2020202020202020
2020204dff4d20de
ffff4d2020202020
2020202020202020
202020202020204d
ff4d4dffffde2020
2020202020202020
2020202020202020
2020204dffffffff
4d20202020202020
2020202020202020
2020202020202020
4dff4d4d20202020
2020202020202020
2020202020202020
2020202020202020
2020202020202020
2020202020202020
2020202020202020
2020202020202020
2020202020202020
2020202020202020
2020202020202020
2020202020202020
2020202020202020
