2020202020202020
2020202020202020
2020202020202020
2020202020202020
2020202020202020
2020202020202020
2020202020202020
2020202020202020
2020202020202020
2020202020202020
2020202020202020
2020202020202020
2020202020202020
2020202020202020
2020202020202020
2020202020202020
2020202020202020
2020202020202020
2020202020202020
2020202020202020
dede382020202020
2020202020202020
2020202020202020
27272079dede2020
2020202020202020
2020202020202027
555555dedede5555
de55202020202020
2020202020202020
20202055dededede
55dededede792020
2020202020202020
20202020202055de
de5555202027dede
de20202020202020
2020202020202020
202055dede202020
6d55dede79202020
2020202020202020
2020202020206ede
de55202055dede55
2020202020202020
2020202020202020
20202055dede79de
dede552020202020
2020202020202020
2020202020202055
dedededede552020
2020202020202020
2020202020202020
20202055dededede
5552202020202020
2020202020202020
2020202020202055
dedede5520202020
2020202020202020
2020202020202020
202055dededede55
2020202020202020
2020202020202020
202020202055dede
de55dede20202020
2020202020202020
2020202020202020
79dede552079de55
2020202020202020
2020202020202020
20202065dede7920
38dede5520202020
2020202020202020
2020202020202055
de55202055dede79
2020202020202020
2020202020202020
20202055de552079
dede552020202020
2020202020202020
2020202020202055
de5555dede792020
2020202020202020
2020202020202020
20202055dededede
5520202020202020
2020202020202020
2020202020202020
55de555520202020
2020202020202020
2020202020202020
2020202020202020
2020202020202020
2020202020202020
2020202020202020
2020202020202020
2020202020202020
2020202020202020
2020202020202020
2020202020202020
2020202020202020
