2020202020202020
2020202020202020
2020202020202020
2020202020202020
2020202020202020
2020202020202020
2020202020202020
2020202020202020
2020202020202020
2020202020202020
2020202020202020
2020202020202020
2020202020202020
2020202020202020
2020202020202020
2020202020202020
2020202020202020
2020202020202020
2020202020202020
2020202020202020
e7e7bd2020202020
2020202020202020
202020202020204a
fcfcd8ffe7e72020
2020202020202020
20202020202020fc
ffffffe7e7e7ffff
e7ff202020202020
2020202020202020
202020ffe7e7e7e7
ffe7e7e7e7ff2020
2020202020202020
202020202020ffe7
e7ffff2020fce7e7
e720202020202020
2020202020202020
2020ffe7e77b2020
ffffe7e7ff202020
2020202020202020
202020202020ffe7
e7ff204affe7e7ff
2020202020202020
2020202020202020
202020ffe7e7ffe7
e7e7ff2020202020
2020202020202020
20202020202020ff
e7e7e7e7e7ff8e20
2020202020202020
2020202020202020
202020ffe7e7e7e7
ffff202020202020
2020202020202020
20202020202020ff
e7e7e7ff20202020
2020202020202020
2020202020202020
2020ffe7e7e7e7ff
2020202020202020
2020202020202020
202020204affe7e7
e7ffe7e720202020
2020202020202020
2020202020202020
ffe7e7ff20ffe7ff
2020202020202020
2020202020202020
202020ffe7e7ff20
bde7e7ff20202020
2020202020202020
20202020202020ff
e7ff2020ffe7e7ff
2020202020202020
2020202020202020
202020ffe7ff20ff
e7e7ff2020202020
2020202020202020
20202020202020ff
e7ffffe7e7ff2020
2020202020202020
2020202020202020
202020ffe7e7e7e7
ff20202020202020
2020202020202020
2020202020202020
ffe7ffff20202020
2020202020202020
2020202020202020
2020202020202020
2020202020202020
2020202020202020
2020202020202020
2020202020202020
2020202020202020
2020202020202020
2020202020202020
2020202020202020
2020202020202020
