2020202020202020
2020202020202020
2020202020202020
2020202020202020
2020202020202020
2020202020202020
2020202020202020
2020202020202020
2020202020202020
2020202020202020
2020202020202020
2020202020202020
2020202020202020
2020202020202020
2020202020202020
2020202020202020
2020202020202020
2020202020202020
2020202020202020
2020202020202020
ffffb72020202020
2020202020202020
2020202020202011
8989b4ffffff2020
2020202020202020
2020202020202089
cececeffffffcece
ffce202020202020
2020202020202020
202020ceffffffff
ceffffffffff2020
2020202020202020
202020202020ceff
ffcece202089ffff
ff20202020202020
2020202020202020
2020ceffff762020
faceffffff202020
2020202020202020
202020202020ffff
ffce2011ceffffce
2020202020202020
2020202020202020
202020ceffffffff
ffffce2020202020
2020202020202020
20202020202020ce
ffffffffffce6c20
2020202020202020
2020202020202020
202020ceffffffff
ced3202020202020
2020202020202020
20202020202020ce
ffffffce20202020
2020202020202020
2020202020202020
2020ceffffffffce
2020202020202020
2020202020202020
2020202011ceffff
ffceffff20202020
2020202020202020
2020202020202020
ffffffce20ffffce
2020202020202020
2020202020202020
202020e0ffffff20
b7ffffce20202020
2020202020202020
20202020202020ce
ffce2020ceffffff
2020202020202020
2020202020202020
202020ceffce20ff
ffffce2020202020
2020202020202020
20202020202020ce
ffceceffffff2020
2020202020202020
2020202020202020
202020ceffffffff
ce20202020202020
2020202020202020
2020202020202020
ceffcece20202020
2020202020202020
2020202020202020
2020202020202020
2020202020202020
2020202020202020
2020202020202020
2020202020202020
2020202020202020
2020202020202020
2020202020202020
2020202020202020
2020202020202020
