2020202020202020
2020202020202020
2020202020202020
2020202020202020
2020202020202020
2020202020202020
2020202020202020
2020202020202020
2020202020202020
2020202020202020
2020202020202020
2020202020202020
2020202020202020
2020202020202020
2020202020202020
2020202020202020
2020202020202020
2020202020202020
2020202020202020
2020202020202020
e0e0ed2020202020
2020202020202020
20202020202020ab
ffffe0e0e0e02020
2020202020202020
20202020202020ff
ffffffe0e0e0ffff
e0ff202020202020
2020202020202020
202020ffe0e0e0e0
ffe0e0e0e0e02020
2020202020202020
202020202020ffe0
e0ffff2020ffe0e0
e020202020202020
2020202020202020
2020ffe0e06b2020
e0ffe0e0e0202020
2020202020202020
202020202020e0e0
e0ff20abffe0e0ff
2020202020202020
2020202020202020
202020ffe0e0e0e0
e0e0ff2020202020
2020202020202020
20202020202020ff
e0e0e0e0e0ffc820
2020202020202020
2020202020202020
202020ffe0e0e0e0
ffff202020202020
2020202020202020
20202020202020ff
e0e0e0ff20202020
2020202020202020
2020202020202020
2020ffe0e0e0e0ff
2020202020202020
2020202020202020
20202020abffe0e0
e0ffe0e020202020
2020202020202020
2020202020202020
e0e0e0ff20e0e0ff
2020202020202020
2020202020202020
202020ede0e0e020
ede0e0ff20202020
2020202020202020
20202020202020ff
e0ff2020ffe0e0e0
2020202020202020
2020202020202020
202020ffe0ff20e0
e0e0ff2020202020
2020202020202020
20202020202020ff
e0ffffe0e0e02020
2020202020202020
2020202020202020
202020ffe0e0e0e0
ff20202020202020
2020202020202020
2020202020202020
ffe0ffff20202020
2020202020202020
2020202020202020
2020202020202020
2020202020202020
2020202020202020
2020202020202020
2020202020202020
2020202020202020
2020202020202020
2020202020202020
2020202020202020
2020202020202020
