2020202020202020
2020202020202020
2020202020202020
2020202020202020
2020202020202020
2020202020202020
2020202020202020
2020202020202020
2020202020202020
2020202020202020
2020202020202020
2020202020202020
2020202020202020
2020202020202020
2020202020202020
2020202020202020
2020202020202020
2020202020202020
2020202020202020
2020202020202020
ffffac2020202020
2020202020202020
2020202020202029
6e6e82ffffff2020
2020202020202020
202020202020206e
cbcbcbffffffcbcb
ffcb202020202020
2020202020202020
202020cbffffffff
cbffffffffff2020
2020202020202020
202020202020cbff
ffcbcb20206effff
ff20202020202020
2020202020202020
2020cbffff752020
c8cbffffff202020
2020202020202020
202020202020ffff
ffcb2029cbffffcb
2020202020202020
2020202020202020
202020cbffffffff
ffffcb2020202020
2020202020202020
20202020202020cb
ffffffffffcb6b20
2020202020202020
2020202020202020
202020cbffffffff
cbbf202020202020
2020202020202020
20202020202020cb
ffffffcb20202020
2020202020202020
2020202020202020
2020cbffffffffcb
2020202020202020
2020202020202020
2020202029cbffff
ffcbffff20202020
2020202020202020
2020202020202020
ffffffcb20ffffcb
2020202020202020
2020202020202020
202020ffffffff20
acffffcb20202020
2020202020202020
20202020202020cb
ffcb2020cbffffff
2020202020202020
2020202020202020
202020cbffcb20ff
ffffcb2020202020
2020202020202020
20202020202020cb
ffcbcbffffff2020
2020202020202020
2020202020202020
202020cbffffffff
cb20202020202020
2020202020202020
2020202020202020
cbffcbcb20202020
2020202020202020
2020202020202020
2020202020202020
2020202020202020
2020202020202020
2020202020202020
2020202020202020
2020202020202020
2020202020202020
2020202020202020
2020202020202020
2020202020202020
