2020202020202020
2020202020202020
2020202020202020
2020202020202020
2020202020202020
2020202020202020
2020202020202020
2020202020202020
2020202020202020
2020202020202020
2020202020202020
2020202020202020
2020202020202020
2020202020202020
2020202020202020
2020202020202020
2020202020202020
2020202020202020
2020202020202020
2020202020202020
9191202020202020
2020202020202020
2020202020202020
2020202c91912020
2020202020202020
2020202020202020
1c1c1c9191911c1c
911c202020202020
2020202020202020
2020201c91919191
1c919191912c2020
2020202020202020
2020202020201c91
911c1c2020209191
9120202020202020
2020202020202020
20201c9191202020
201c91912c202020
2020202020202020
2020202020205291
911c20201c91911c
2020202020202020
2020202020202020
2020201c91912c91
91911c2020202020
2020202020202020
202020202020201c
91919191911c2020
2020202020202020
2020202020202020
2020201c91919191
1c20202020202020
2020202020202020
202020202020201c
9191911c20202020
2020202020202020
2020202020202020
20201c919191911c
2020202020202020
2020202020202020
20202020201c9191
911c919120202020
2020202020202020
2020202020202020
2c91911c202c911c
2020202020202020
2020202020202020
2020203e91912c20
2091911c20202020
2020202020202020
202020202020201c
911c20201c91912c
2020202020202020
2020202020202020
2020201c911c202c
91911c2020202020
2020202020202020
202020202020201c
911c1c91912c2020
2020202020202020
2020202020202020
2020201c91919191
1c20202020202020
2020202020202020
2020202020202020
1c911c1c20202020
2020202020202020
2020202020202020
2020202020202020
2020202020202020
2020202020202020
2020202020202020
2020202020202020
2020202020202020
2020202020202020
2020202020202020
2020202020202020
2020202020202020
