2020202020202020
2020202020202020
2020202020202020
2020202020202020
2020202020202020
2020202020202020
2020202020202020
2020202020202020
2020202020202020
2020202020202020
2020202020202020
2020202020202020
2020202020202020
2020202020202020
2020202020202020
2020202020202020
2020202020202020
2020202020202020
2020202020202020
2020202020202020
5f5f202020202020
2020202020202020
2020202020202020
202020085f5f2020
2020202020202020
2020202020202020
0101015f5f5f0101
5f01202020202020
2020202020202020
202020015f5f5f5f
015f5f5f5f082020
2020202020202020
202020202020015f
5f01012020205f5f
5f20202020202020
2020202020202020
2020015f5f202020
20015f5f08202020
2020202020202020
202020202020205f
5f012020015f5f01
2020202020202020
2020202020202020
202020015f5f085f
5f5f012020202020
2020202020202020
2020202020202001
5f5f5f5f5f012020
2020202020202020
2020202020202020
202020015f5f5f5f
0120202020202020
2020202020202020
2020202020202001
5f5f5f0120202020
2020202020202020
2020202020202020
2020015f5f5f5f01
2020202020202020
2020202020202020
2020202020015f5f
5f015f5f20202020
2020202020202020
2020202020202020
085f5f0120085f01
2020202020202020
2020202020202020
2020200e5f5f0820
205f5f0120202020
2020202020202020
2020202020202001
5f012020015f5f08
2020202020202020
2020202020202020
202020015f012008
5f5f012020202020
2020202020202020
2020202020202001
5f01015f5f082020
2020202020202020
2020202020202020
202020015f5f5f5f
0120202020202020
2020202020202020
2020202020202020
015f010120202020
2020202020202020
2020202020202020
2020202020202020
2020202020202020
2020202020202020
2020202020202020
2020202020202020
2020202020202020
2020202020202020
2020202020202020
2020202020202020
2020202020202020
