2020202020202020
2020202020202020
2020202020202020
2020202020202020
2020202020202020
2020202020202020
2020202020202020
2020202020202020
2020202020202020
2020202020202020
2020202020202020
2020202020202020
2020202020202020
2020202020202020
2020202020202020
2020202020202020
2020202020202020
2020202020202020
2020202020202020
2020202020202020
e0e09d2020202020
2020202020202020
2020202020202044
a9a9d0ffe0e02020
2020202020202020
20202020202020a9
ffffffe0e0e0ffff
e0ff202020202020
2020202020202020
202020ffe0e0e0e0
ffe0e0e0e0ff2020
2020202020202020
202020202020ffe0
e0ffff2020a9e0e0
e020202020202020
2020202020202020
2020ffe0e0762020
ffffe0e0ff202020
2020202020202020
202020202020e0e0
e0ff2044ffe0e0ff
2020202020202020
2020202020202020
202020ffe0e0ffe0
e0e0ff2020202020
2020202020202020
20202020202020ff
e0e0e0e0e0ff9e20
2020202020202020
2020202020202020
202020ffe0e0e0e0
ffff202020202020
2020202020202020
20202020202020ff
e0e0e0ff20202020
2020202020202020
2020202020202020
2020ffe0e0e0e0ff
2020202020202020
2020202020202020
2020202044ffe0e0
e0ffe0e020202020
2020202020202020
2020202020202020
ffe0e0ff20ffe0ff
2020202020202020
2020202020202020
202020e0e0e0ff20
9de0e0ff20202020
2020202020202020
20202020202020ff
e0ff2020ffe0e0ff
2020202020202020
2020202020202020
202020ffe0ff20ff
e0e0ff2020202020
2020202020202020
20202020202020ff
e0ffffe0e0ff2020
2020202020202020
2020202020202020
202020ffe0e0e0e0
ff20202020202020
2020202020202020
2020202020202020
ffe0ffff20202020
2020202020202020
2020202020202020
2020202020202020
2020202020202020
2020202020202020
2020202020202020
2020202020202020
2020202020202020
2020202020202020
2020202020202020
2020202020202020
2020202020202020
