2020202020202020
2020202020202020
2020202020202020
2020202020202020
2020202020202020
2020202020202020
2020202020202020
2020202020202020
2020202020202020
2020202020202020
2020202020202020
2020202020202020
2020202020202020
2020202020202020
2020202020202020
2020202020202020
2020202020202020
2020202020202020
2020202020202020
2020202020202020
e3e34c2020202020
2020202020202020
2020202020202020
545425a6e3e32020
2020202020202020
2020202020202054
707070e3e3e37070
e370202020202020
2020202020202020
20202070e3e3e3e3
70e3e3e3e3a62020
2020202020202020
20202020202070e3
e37070202054e3e3
e320202020202020
2020202020202020
202070e3e3202020
7870e3e3a6202020
2020202020202020
20202020202073e3
e370202070e3e370
2020202020202020
2020202020202020
20202070e3e3a6e3
e3e3702020202020
2020202020202020
2020202020202070
e3e3e3e3e3703820
2020202020202020
2020202020202020
20202070e3e3e3e3
705a202020202020
2020202020202020
2020202020202070
e3e3e37020202020
2020202020202020
2020202020202020
202070e3e3e3e370
2020202020202020
2020202020202020
202020202070e3e3
e370e3e320202020
2020202020202020
2020202020202020
a6e3e37020a6e370
2020202020202020
2020202020202020
20202079e3e3a620
4ce3e37020202020
2020202020202020
2020202020202070
e370202070e3e3a6
2020202020202020
2020202020202020
20202070e37020a6
e3e3702020202020
2020202020202020
2020202020202070
e37070e3e3a62020
2020202020202020
2020202020202020
20202070e3e3e3e3
7020202020202020
2020202020202020
2020202020202020
70e3707020202020
2020202020202020
2020202020202020
2020202020202020
2020202020202020
2020202020202020
2020202020202020
2020202020202020
2020202020202020
2020202020202020
2020202020202020
2020202020202020
2020202020202020
