2020202020202020
2020202020202020
2020202020202020
2020202020202020
2020202020202020
2020202020202020
2020202020202020
2020202020202020
2020202020202020
2020202020202020
2020202020202020
2020202020202020
2020202020202020
2020202020202020
2020202020202020
2020202020202020
2020202020202020
2020202020202020
2020202020202020
2020202020202020
ffff9e2020202020
2020202020202020
2020202020202028
92927affffff2020
2020202020202020
2020202020202092
a1a1a1ffffffa1a1
ffa1202020202020
2020202020202020
202020a1ffffffff
a1ffffffffff2020
2020202020202020
202020202020a1ff
ffa1a1202092ffff
ff20202020202020
2020202020202020
2020a1ffff6d2020
cda1ffffff202020
2020202020202020
202020202020ffff
ffa12028a1ffffa1
2020202020202020
2020202020202020
202020a1ffffffff
ffffa12020202020
2020202020202020
20202020202020a1
ffffffffffa15c20
2020202020202020
2020202020202020
202020a1ffffffff
a185202020202020
2020202020202020
20202020202020a1
ffffffa120202020
2020202020202020
2020202020202020
2020a1ffffffffa1
2020202020202020
2020202020202020
2020202028a1ffff
ffa1ffff20202020
2020202020202020
2020202020202020
ffffffa120ffffa1
2020202020202020
2020202020202020
202020f5ffffff20
9effffa120202020
2020202020202020
20202020202020a1
ffa12020a1ffffff
2020202020202020
2020202020202020
202020a1ffa120ff
ffffa12020202020
2020202020202020
20202020202020a1
ffa1a1ffffff2020
2020202020202020
2020202020202020
202020a1ffffffff
a120202020202020
2020202020202020
2020202020202020
a1ffa1a120202020
2020202020202020
2020202020202020
2020202020202020
2020202020202020
2020202020202020
2020202020202020
2020202020202020
2020202020202020
2020202020202020
2020202020202020
2020202020202020
2020202020202020
