2020202020202020
2020202020202020
2020202020202020
2020202020202020
2020202020202020
2020202020202020
2020202020202020
2020202020202020
2020202020202020
2020202020202020
2020202020202020
2020202020202020
2020202020202020
2020202020202020
2020202020202020
2020202020202020
2020202020202020
2020202020202020
2020202020202020
2020202020202020
ffff822020202020
2020202020202020
202020202020201c
7d7d2df2ffff2020
2020202020202020
202020202020207d
686868ffffff6868
ff68202020202020
2020202020202020
20202068ffffffff
68fffffffff22020
2020202020202020
20202020202068ff
ff686820207dffff
ff20202020202020
2020202020202020
202068ffff202020
c468fffff2202020
2020202020202020
202020202020bfff
ff68201c68ffff68
2020202020202020
2020202020202020
20202068fffff2ff
ffff682020202020
2020202020202020
2020202020202068
ffffffffff684320
2020202020202020
2020202020202020
20202068ffffffff
687c202020202020
2020202020202020
2020202020202068
ffffff6820202020
2020202020202020
2020202020202020
202068ffffffff68
2020202020202020
2020202020202020
202020201c68ffff
ff68ffff20202020
2020202020202020
2020202020202020
f2ffff6820f2ff68
2020202020202020
2020202020202020
202020b4fffff220
82ffff6820202020
2020202020202020
2020202020202068
ff68202068fffff2
2020202020202020
2020202020202020
20202068ff6820f2
ffff682020202020
2020202020202020
2020202020202068
ff6868fffff22020
2020202020202020
2020202020202020
20202068ffffffff
6820202020202020
2020202020202020
2020202020202020
68ff686820202020
2020202020202020
2020202020202020
2020202020202020
2020202020202020
2020202020202020
2020202020202020
2020202020202020
2020202020202020
2020202020202020
2020202020202020
2020202020202020
2020202020202020
