2020202020202020
2020202020202020
2020202020202020
2020202020202020
2020202020202020
2020202020202020
2020202020202020
2020202020202020
2020202020202020
2020202020202020
2020202020202020
2020202020202020
2020202020202020
2020202020202020
2020202020202020
2020202020202020
2020202020202020
2020202020202020
2020202020202020
2020202020202020
2020202020202020
2020202020202020
2020202020202020
2020202020202020
2020202020202020
2020202020202020
202020888888fbfb
fb20202020202020
2020202020202020
20202020a68888fb
fbfbfbfbfbfb2020
2020202020202020
202020202088fbfb
fbfbfbfbfbfbfbfb
fbfb202020202020
20202020202020a6
fbfbfbfbfbfb3f20
3fa6fbfbfb882020
2020202020202020
20202088fbfbfbfb
888220202088fbfb
fb20202020202020
202020202020a6fb
fbfbfb8220202020
2088fbfb88202020
2020202020202020
202088fbfb88a620
20202020c1fbfb88
a620202020202020
202020202020c1fb
8820202020202088
fbfbfb2020202020
2020202020202020
2020202020202020
2020c1fbfbfbc120
2020202020202020
2020202020202020
202020202020fbfb
fbc1202020202020
2020202020202020
2020202020202020
2088fbfbfb3f2020
2020202020202020
2020202020202020
202020202088fbfb
8820202020202020
2020202020202020
2020202020202020
c1fbfb8820202020
2020202020202020
2020202020202020
20202088fbfb8820
2020202020202020
2020202020202020
20202020202059fb
fbfb202020202020
2020202020202020
2020202020202020
203f88fbfb732020
2020202020202020
2020202020202020
202020202088fbfb
c120202020202020
2020202020202020
2020202020202020
5988fb883f202020
2020202020202020
2020202020202020
2020202088fbfb3f
2020202020202020
2020202020202020
2020202020202020
a6fbc12020202020
2020202020202020
2020202020202020
2020202020202020
2020202020202020
2020202020202020
