0004000300020001
0104010301020101
0204020302020201
0304030303020301
0404040304020401
0504050305020501
0604060306020601
0704070307020701
0804080308020801
0904090309020901
0a040a030a020a01
0b040b030b020b01
0c040c030c020c01
0d040d030d020d01
0e040e030e020e01
0f040f030f020f01
1004100310021001
1104110311021101
1204120312021201
1304130313021301
1404140314021401
1504150315021501
1604160316021601
1704170317021701
1804180318021801
1904190319021901
1a041a272727bda4
be041b031b021b01
1c041c031c021c01
1d041d034a2727a4
c1a7c1a6c1a51e01
1f041f031f021f01
200420032027c3a4
c4a7c4a6c4a5c4a4
c5a7220322022201
230423032302233f
c7a7c7a6c7a54201
433fc8a6c8272501
2604260326022601
27042727caa5caa4
304a28032827cba4
cc04290329022901
2a042a032a0257a4
cea7ce492b022b01
2c27cfa634022c01
2d042d032d022d01
2e0436a6d1275b01
2f042f036da5d227
5d04300330023001
3104310331026fa4
3a04320332023227
d6a7d60333023301
3404340334023401
3504350335023501
360474a6d9a57401
3704370337023701
3804380338023801
390439033902dca4
dd563a033a023a01
3b043b033b023b01
3c043c033c023c01
3d27e0a6e0303d01
3e043e033e023e01
3f043f033f023f01
400440034027e3a4
4904410341024101
4204420342024201
4304430343024301
82a7e72744024401
4504450345024501
4604460346024601
47044727eaa54f01
4804480348024801
4904490349024901
4a044a034a0256a4
eea74b034b024b01
4c044c034c024c01
4d044d034d024d01
4e3056a6f1024e01
4f044f034f024f01
5004500350025001
510451035127f4a4
9004520352025201
5304530353025301
5404540354025401
6127f82773025501
5604560356025601
5704570357025701
5804580360a5fb30
5904590359025901
5a045a035a025a01
5b045b035b025b01
89a79a035c025c01
5d045d035d025d01
5e045e035e025e01
5f045f035f025f01
6004600360026001
6104610361026101
