2020202020202020
2020202020202020
2020202020202020
2020202020202020
2020202020202020
2020202020202020
2020202020202020
2020202020202020
2020202020202020
2020202020202020
2020202020202020
2020202020202020
2020202020202020
2020202020202020
2020202020202020
2020202020202020
2020202020202020
2020202020202020
2020202020202020
2020202020202020
2020202020202020
2020202020202020
2020202020202020
2020202020202020
2020202020202020
2020202020202020
202020989898ffff
ff20202020202020
2020202020202020
20202020f39898ff
ffffffffffff2020
2020202020202020
202020202098ffff
ffffffffffffffff
ffff202020202020
20202020202020f3
ffffffffffff6e20
6ef3ffffff982020
2020202020202020
20202098ffffffff
98c320202098ffff
ff20202020202020
202020202020f3ff
ffffffc320202020
2098ffff98202020
2020202020202020
202098ffff98f320
20202020ffffff98
f320202020202020
202020202020ffff
9820202020202098
ffffff2020202020
2020202020202020
2020202020202020
2020ffffffffff20
2020202020202020
2020202020202020
202020202020ffff
ffff202020202020
2020202020202020
2020202020202020
2098ffffff6e2020
2020202020202020
2020202020202020
202020202098ffff
9820202020202020
2020202020202020
2020202020202020
ffffff9820202020
2020202020202020
2020202020202020
20202098ffff9820
2020202020202020
2020202020202020
20202020202073ff
ffff202020202020
2020202020202020
2020202020202020
206e98ffff792020
2020202020202020
2020202020202020
202020202098ffff
ff20202020202020
2020202020202020
2020202020202020
7398ff986e202020
2020202020202020
2020202020202020
2020202098ffff6e
2020202020202020
2020202020202020
2020202020202020
f3ffff2020202020
2020202020202020
2020202020202020
2020202020202020
2020202020202020
2020202020202020
