2020202020202020
2020202020202020
2020202020202020
2020202020202020
2020202020202020
2020202020202020
2020202020202020
2020202020202020
2020202020202020
2020202020202020
2020202020202020
2020202020202020
2020202020202020
2020202020202020
2020202020202020
2020202020202020
2020202020202020
2020202020202020
2020202020202020
2020202020202020
2020202020202020
2020202020202020
2020202020202020
2020202020202020
2020202020202020
2020202020202020
202020282828c3c3
c320202020202020
2020202020202020
202020204d2828c3
c3c3c3c3c3c32020
2020202020202020
202020202028c3c3
c3c3c3c3c3c3c3c3
c3c3202020202020
202020202020204d
c3c3c3c3c3c33e20
3e4dc3c3c3282020
2020202020202020
20202028c3c3c3c3
286620202028c3c3
c320202020202020
2020202020204dc3
c3c3c36620202020
2028c3c328202020
2020202020202020
202028c3c3284d20
202020205ec3c328
4d20202020202020
2020202020205ec3
2820202020202028
c3c3c32020202020
2020202020202020
2020202020202020
20205ec3c3c35e20
2020202020202020
2020202020202020
202020202020c3c3
c35e202020202020
2020202020202020
2020202020202020
2028c3c3c33e2020
2020202020202020
2020202020202020
202020202028c3c3
2820202020202020
2020202020202020
2020202020202020
5ec3c32820202020
2020202020202020
2020202020202020
20202028c3c32820
2020202020202020
2020202020202020
2020202020202cc3
c3c3202020202020
2020202020202020
2020202020202020
203e28c3c3202020
2020202020202020
2020202020202020
202020202028c3c3
5e20202020202020
2020202020202020
2020202020202020
2c28c3283e202020
2020202020202020
2020202020202020
2020202028c3c33e
2020202020202020
2020202020202020
2020202020202020
4dc35e2020202020
2020202020202020
2020202020202020
2020202020202020
2020202020202020
2020202020202020
