0000000000000000
0000000000000000
0000000000000000
0000000000000000
0000000000000000
0000000000000000
0000000000000000
0000000000000000
0000000000000000
0000000000000000
0000000000000000
0000000000000000
0000000000000000
0000000000000000
0000000000000000
0000000000000000
0000000000000000
0000000000000000
0000000000000000
000000000000000b
cbe5200000000000
0000000000000000
000000000000001a
2f2f1e5ffed70d00
0000000000000000
000000000000002d
9ab9b9c3e1e1f6ff
ffbc130000000000
0000000000000000
0000006effe1e1ff
ffffffffffcd0000
0000000000000000
000000000003f1ff
fffffa8671a1ffff
ff79000000000000
0000000000000030
7171fcffff8a0000
24c8ffffdb030000
0000000000000000
000000037171a8ff
e1d30b1ab2e1ffe2
7100000000000000
0000000000003071
717178cdfde450df
fde1de7103000000
0000000000000000
000003717103308d
fdfdfdfeffff8e03
3000000000000000
0000000000002471
0300006efdfdfde2
ff97710000000000
0000000000000000
00000000000003ab
fefeffff71712400
0000000000000000
0000000000000000
0000abfdfdfdffff
7124000000000000
0000000000000000
000000001a7bfefd
cb80ffff71000000
0000000000000000
0000000000000000
5dfdfe790d41ffff
0300000000000000
0000000000000000
00000040effd4c08
2cffff6200000000
0000000000000000
0000000000000085
febf0003ddffe26a
0000000000000000
0000000000000000
00000084fdbe00c6
ffff9a0000000000
0000000000000000
0000000000000099
fda9a4ffff4d0000
0000000000000000
0000000000000000
00000070fde1ffff
8d09000000000000
0000000000000000
0000000000000011
5ed7ff5500000000
0000000000000000
0000000000000000
0000000003717100
0000000000000000
0000000000000000
0000000000000000
3071240000000000
0000000000000000
0000000000000000
0000000000000000
0000000000000000
0000000000000000
