2020202020202020
2020202020202020
2020202020202020
2020202020202020
2020202020202020
2020202020202020
2020202020202020
2020202020202020
2020202020202020
2020202020202020
2020202020202020
2020202020202020
2020202020202020
2020202020202020
2020202020202020
2020202020202020
2020202020202020
2020202020202020
2020202020202020
2020202020202020
2020202020202020
2020202020202020
2020202020202020
2020202020202020
2020202020202020
2020202020202020
202020707070e3e3
e320202020202020
2020202020202020
20202020797070e3
e3e3e3e3e3e32020
2020202020202020
202020202070e3e3
e3e3e3e3e3e3e3e3
e3e3202020202020
2020202020202079
e3e3e3e3e3e35a20
5a79e3e3e3702020
2020202020202020
20202070e3e3e3e3
707320202070e3e3
e320202020202020
20202020202079e3
e3e3e37320202020
2070e3e370202020
2020202020202020
202070e3e3707920
20202020a6e3e370
7920202020202020
202020202020a6e3
7020202020202070
e3e3e32020202020
2020202020202020
2020202020202020
2020a6e3e3e3a620
2020202020202020
2020202020202020
202020202020e3e3
e3a6202020202020
2020202020202020
2020202020202020
2070e3e3e35a2020
2020202020202020
2020202020202020
202020202070e3e3
7020202020202020
2020202020202020
2020202020202020
a6e3e37020202020
2020202020202020
2020202020202020
20202070e3e37020
2020202020202020
2020202020202020
20202020202041e3
e3e3202020202020
2020202020202020
2020202020202020
205a70e3e3682020
2020202020202020
2020202020202020
202020202070e3e3
a620202020202020
2020202020202020
2020202020202020
4170e3705a202020
2020202020202020
2020202020202020
2020202070e3e35a
2020202020202020
2020202020202020
2020202020202020
79e3a62020202020
2020202020202020
2020202020202020
2020202020202020
2020202020202020
2020202020202020
