2020202020202020
2020202020202020
2020202020202020
2020202020202020
2020202020202020
2020202020202020
2020202020202020
2020202020202020
2020202020202020
2020202020202020
2020202020202020
2020202020202020
2020202020202020
2020202020202020
2020202020202020
2020202020202020
2020202020202020
2020202020202020
2020202020202020
2020202020202020
2020202020202020
2020202020202020
2020202020202020
2020202020202020
2020202020202020
2020202020202020
2020200404049191
9120202020202020
2020202020202020
202020203e040491
9191919191912020
2020202020202020
2020202020049191
9191919191919191
9191202020202020
202020202020203e
9191919191910e20
0e3e919191042020
2020202020202020
2020200491919191
0452202020049191
9120202020202020
2020202020203e91
9191915220202020
2004919104202020
2020202020202020
2020049191043e20
202020202c919104
3e20202020202020
2020202020202c91
0420202020202004
9191912020202020
2020202020202020
2020202020202020
20202c9191912c20
2020202020202020
2020202020202020
2020202020209191
912c202020202020
2020202020202020
2020202020202020
20049191910e2020
2020202020202020
2020202020202020
2020202020049191
0420202020202020
2020202020202020
2020202020202020
2c91910420202020
2020202020202020
2020202020202020
2020200491910420
2020202020202020
2020202020202020
2020202020200891
9191202020202020
2020202020202020
2020202020202020
200e049191202020
2020202020202020
2020202020202020
2020202020049191
2c20202020202020
2020202020202020
2020202020202020
080491040e202020
2020202020202020
2020202020202020
202020200491910e
2020202020202020
2020202020202020
2020202020202020
3e912c2020202020
2020202020202020
2020202020202020
2020202020202020
2020202020202020
2020202020202020
