0000000000000000
0000000000000000
0000000000000000
0000000000000000
0000000000000000
0000000000000000
0000000000000000
0000000000000000
0000000000000000
0000000000000000
0000000000000000
0000000000000000
0000000000000000
0000000000000000
0000000000000000
0000000000000000
0000000000000000
0000000000000000
0000000000000000
000000000000000b
cbe5200000000000
0000000000000000
000000000000001a
2f2f1e5ffed70d00
0000000000000000
000000000000002d
9ab9b9dbf9f9f6ff
ffbc130000000000
0000000000000000
0000006efff9f9ff
ffffffffffcd0000
0000000000000000
00000000001bf1ff
fffffa8671a1ffff
ff79000000000000
0000000000000030
7171fcffff8a0000
24c8ffffdb1b0000
0000000000000000
0000001b7171a8ff
f9d30b1ab2f9ffe2
7100000000000000
0000000000003071
717178cdfde450df
fdf9de711b000000
0000000000000000
00001b71711b308d
fdfdfdfeffff8e1b
3000000000000000
0000000000002471
1b00006efdfdfdfa
ff97710000000000
0000000000000000
00000000000003ab
fefeffff71712400
0000000000000000
0000000000000000
0000abfdfdfdffff
7124000000000000
0000000000000000
000000001a7bfefd
cb98ffff71000000
0000000000000000
0000000000000000
5dfdfe790d59ffff
1b00000000000000
0000000000000000
00000040effd4c08
2cffff7a00000000
0000000000000000
0000000000000085
febf001bddfffa6a
0000000000000000
0000000000000000
00000084fdbe05c6
ffff9a0000000000
0000000000000000
0000000000000099
fda9bcffff4d0000
0000000000000000
0000000000000000
00000070fdf9ffff
8d09000000000000
0000000000000000
0000000000000011
76efff6d00000000
0000000000000000
0000000000000000
000000001b717100
0000000000000000
0000000000000000
0000000000000000
3071240000000000
0000000000000000
0000000000000000
0000000000000000
0000000000000000
0000000000000000
