0000000000000000
0000000000000000
0000000000000000
0000000000000000
0000000000000000
0000000000000000
0000000000000000
0000000000000000
0000000000000000
0000000000000000
0000000000000000
0000000000000000
0000000000000000
0000000000000000
0000000000000000
0000000000000000
0000000000000000
0000000000000000
0000000000000000
000000000000000b
cbe5200000000000
0000000000000000
000000000000001a
2f2f1e5ffed70d00
0000000000000000
000000000000002d
9ab9b9c0dedec4ee
ffbc130000000000
0000000000000000
0000006efddedeff
e0ffffffff9b0000
0000000000000000
000000000000bfff
ffddc8543f6fffff
ff47000000000000
0000000000000000
3f3fcaffff580000
24aaffffa9000000
0000000000000000
000000003f3f76ff
dea10b1ab2deffb0
3f00000000000000
000000000000003f
3f3f469bfde450df
fddeac3f00000000
0000000000000000
0000003f3f00008d
fdfdfdfefdd95c00
0000000000000000
000000000000003f
0000006efdfdfddf
f2653f0000000000
0000000000000000
00000000000003ab
fefefef23f3f0000
0000000000000000
0000000000000000
0000abfdfdfdfff1
3f00000000000000
0000000000000000
000000001a7bfefd
cb7dffff3f000000
0000000000000000
0000000000000000
5dfdfe790d3effdd
0000000000000000
0000000000000000
00000040effd4c08
20ffff5f00000000
0000000000000000
0000000000000085
febf0000abffdf6a
0000000000000000
0000000000000000
00000084fdbe0594
ffff9a0000000000
0000000000000000
0000000000000099
fda9a1ffff4d0000
0000000000000000
0000000000000000
00000070fddeffff
8109000000000000
0000000000000000
0000000000000011
76d4fe5200000000
0000000000000000
0000000000000000
00000000003f3f00
0000000000000000
0000000000000000
0000000000000000
003f000000000000
0000000000000000
0000000000000000
0000000000000000
0000000000000000
0000000000000000
