0000000000000000
0000000000000000
0000000000000000
0000000000000000
0000000000000000
0000000000000000
0000000000000000
0000000000000000
0000000000000000
0000000000000000
0000000000000000
0000000000000000
0000000000000000
0000000000000000
0000000000000000
0000000000000000
0000000000000000
0000000000000000
0000000000000000
000000000000000b
cbe5200000000000
0000000000000000
000000000000001a
2f2f1e5ffed70d00
0000000000000000
000000000000002d
9ab9b9fbfbfbffff
ffbc130000000000
0000000000000000
0000006efffbfbff
ffffffffffff0000
0000000000000000
000000000097ffff
ffffffffffffffff
ffff000000000000
00000000000000e5
ffffffffffff6000
72ffffffff970000
0000000000000000
00000097ffffffff
fbff0b1ab2fbffff
ff00000000000000
000000000000e5ff
fffffffffde450df
fdfbffff97000000
0000000000000000
000097ffff97e58d
fdfdfdfeffffff97
e500000000000000
000000000000faff
9700006efdfdfdfb
ffffff0000000000
0000000000000000
00000000000003ab
fefefffffffffa00
0000000000000000
0000000000000000
0000abfdfdfdffff
fffa000000000000
0000000000000000
000000001a7bfefd
cbfbffffff600000
0000000000000000
0000000000000000
5dfdfe790dd5ffff
9700000000000000
0000000000000000
00000040effd4c08
fffffff600000000
0000000000000000
0000000000000085
febf0097fffffb6a
0000000000000000
0000000000000000
00000084fdbe6bff
ffff9a0000000000
0000000000000000
0000000000000099
fdf7fbffffa60000
0000000000000000
0000000000000000
00000070fdfbffff
ff09000000000000
0000000000000000
0000000000000011
c9fbffe960000000
0000000000000000
0000000000000000
0000000097ffff60
0000000000000000
0000000000000000
0000000000000000
e5fffa0000000000
0000000000000000
0000000000000000
0000000000000000
0000000000000000
0000000000000000
