2020202020202020
2020202020202020
2020202020202020
2020202020202020
2020202020202020
2020202020202020
2020202020202020
2020202020202020
2020202020202020
2020202020202020
2020202020202020
2020202020202020
2020202020202020
2020202020202020
2020202020202020
2020202020202020
2020202020202020
2020202020202020
2020202020202020
2020202020202020
2020202020202020
2020202020202020
2020202020202020
2020202020202020
2020202020202020
2020202020202020
2020200101015f5f
5f20202020202020
2020202020202020
202020202001015f
5f5f5f5f5f5f2020
2020202020202020
2020202020015f5f
5f5f5f5f5f5f5f5f
5f5f202020202020
2020202020202020
5f5f5f5f5f5f2020
20205f5f5f012020
2020202020202020
202020015f5f5f5f
0120202020015f5f
5f20202020202020
202020202020205f
5f5f5f2020202020
20015f5f01202020
2020202020202020
2020015f5f012020
20202020085f5f01
2020202020202020
202020202020085f
0120202020202001
5f5f5f2020202020
2020202020202020
2020202020202020
2020085f5f5f0820
2020202020202020
2020202020202020
2020202020205f5f
5f08202020202020
2020202020202020
2020202020202020
20015f5f5f202020
2020202020202020
2020202020202020
2020202020015f5f
0120202020202020
2020202020202020
2020202020202020
085f5f0120202020
2020202020202020
2020202020202020
202020015f5f0120
2020202020202020
2020202020202020
202020202020205f
5f5f202020202020
2020202020202020
2020202020202020
2020015f5f202020
2020202020202020
2020202020202020
2020202020015f5f
0820202020202020
2020202020202020
2020202020202020
20015f0120202020
2020202020202020
2020202020202020
20202020015f5f20
2020202020202020
2020202020202020
2020202020202020
205f082020202020
2020202020202020
2020202020202020
2020202020202020
2020202020202020
2020202020202020
