0000000000000000
0000000000000000
0000000000000000
0000000000000000
0000000000000000
0000000000000000
0000000000000000
0000000000000000
0000000000000000
0000000000000000
0000000000000000
0000000000000000
0000000000000000
0000000000000000
0000000000000000
0000000000000000
0000000000000000
0000000000000000
0000000000000000
000000000000000b
cbe5200000000000
0000000000000000
000000000000001a
2f2f1e5ffed70d00
0000000000000000
000000000000002d
9ab9b9ffffffffff
ffbc130000000000
0000000000000000
0000006effffffff
ffffffffffff0000
0000000000000000
00000000006fffff
ffffffd8c3f3ffff
ffcb000000000000
000000000000006b
c3c3ffffffdc4c00
5effffffff6f0000
0000000000000000
0000006fc3c3faff
fff40b1ab2ffffff
c300000000000000
0000000000006bc3
c3c3caeefde450df
fdffffc36f000000
0000000000000000
00006fc3c36f6b8d
fdfdfdfeffffe06f
6b00000000000000
0000000000009ec3
6f00006efdfdfdff
ffe9c30000000000
0000000000000000
00000000000003ab
fefeffffc3c39e00
0000000000000000
0000000000000000
0000abfdfdfdffff
c39e000000000000
0000000000000000
000000001a7bfefd
cbecffffc34c0000
0000000000000000
0000000000000000
5dfdfe790dadffff
6f00000000000000
0000000000000000
00000040effd4c08
a6ffffce00000000
0000000000000000
0000000000000085
febf006fffffff6a
0000000000000000
0000000000000000
00000084fdbe39ff
ffff9a0000000000
0000000000000000
0000000000000099
fde3ffffff950000
0000000000000000
0000000000000000
00000070fdffffff
ff09000000000000
0000000000000000
0000000000000011
97ffffc14c000000
0000000000000000
0000000000000000
000000006fc3c34c
0000000000000000
0000000000000000
0000000000000000
6bc39e0000000000
0000000000000000
0000000000000000
0000000000000000
0000000000000000
0000000000000000
