0000000000000000
0000000000000000
0000000000000000
0000000000000000
0000000000000000
0000000000000000
0000000000000000
0000000000000000
0000000000000000
0000000000000000
0000000000000000
0000000000000000
0000000000000000
0000000000000000
0000000000000000
0000000000000000
0000000000000000
0000000000000000
0000000000000000
000000000000000b
cbe5200000000000
0000000000000000
000000000000001a
2f2f1e5ffed70d00
0000000000000000
000000000000002d
9ab9b9e7ffffffff
ffbc130000000000
0000000000000000
0000006effffffff
ffffffffffff0000
0000000000000000
000000000027ffff
ffffffb8a3d3ffff
ffab000000000000
000000000000003f
a3a3ffffffbc3000
42d7ffffff270000
0000000000000000
00000027a3a3daff
ffe70b1ab2ffffff
a300000000000000
0000000000003fa3
a3a3aae1fde450df
fdffffa327000000
0000000000000000
000027a3a3273f8d
fdfdfdfeffffc027
3f00000000000000
00000000000056a3
2700006efdfdfdff
ffc9a30000000000
0000000000000000
00000000000003ab
fefeffffa3a35600
0000000000000000
0000000000000000
0000abfdfdfdffff
a356000000000000
0000000000000000
000000001a7bfefd
cba4ffffa3300000
0000000000000000
0000000000000000
5dfdfe790d65ffff
2700000000000000
0000000000000000
00000040effd4c08
5effff8600000000
0000000000000000
0000000000000085
febf0027ffffff6a
0000000000000000
0000000000000000
00000084fdbe24f8
ffff9a0000000000
0000000000000000
0000000000000099
fdc7c8ffff4d0000
0000000000000000
0000000000000000
00000070fdffffff
bf09000000000000
0000000000000000
0000000000000011
82fbff7930000000
0000000000000000
0000000000000000
0000000027a3a330
0000000000000000
0000000000000000
0000000000000000
3fa3560000000000
0000000000000000
0000000000000000
0000000000000000
0000000000000000
0000000000000000
