0000000000000000
0000000000000000
0000000000000000
0000000000000000
0000000000000000
0000000000000000
0000000000000000
0000000000000000
0000000000000000
0000000000000000
0000000000000000
0000000000000000
0000000000000000
0000000000000000
0000000000000000
0000000000000000
0000000000000000
0000000000000000
0000000000000000
000000000000000b
cbe5200000000000
0000000000000000
000000000000001a
2f2f1e5ffed70d00
0000000000000000
000000000000002d
9ab9b9dffdfdc4ee
ffbc130000000000
0000000000000000
0000006efdfdfdff
e0ffffffff9b0000
0000000000000000
000000000000bfff
ffddc8543f6fffff
ff47000000000000
0000000000000000
3f3fcaffff580000
24aaffffa9000000
0000000000000000
000000003f3f76ff
fda10b1ab2fdffb0
3f00000000000000
000000000000003f
3f3f469bfde450df
fdfdac3f00000000
0000000000000000
0000003f3f00008d
fdfdfdfefdd95c00
0000000000000000
000000000000003f
0000006efdfdfdfe
f2653f0000000000
0000000000000000
00000000000003ab
fefefef23f3f0000
0000000000000000
0000000000000000
0000abfdfdfdfff1
3f00000000000000
0000000000000000
000000001a7bfefd
cb9cffff3f000000
0000000000000000
0000000000000000
5dfdfe790d5dffdd
0000000000000000
0000000000000000
00000040effd4c08
20ffff7e00000000
0000000000000000
0000000000000085
febf0005abfffe6a
0000000000000000
0000000000000000
00000084fdbe0594
ffff9a0000000000
0000000000000000
0000000000000099
fda9c0ffff4d0000
0000000000000000
0000000000000000
00000070fdfdffff
8109000000000000
0000000000000000
0000000000000011
76f3fe7100000000
0000000000000000
0000000000000000
00000000003f3f00
0000000000000000
0000000000000000
0000000000000000
003f000000000000
0000000000000000
0000000000000000
0000000000000000
0000000000000000
0000000000000000
