0000000000000000
0000000000000000
0000000000000000
0000000000000000
0000000000000000
0000000000000000
0000000000000000
0000000000000000
0000000000000000
0000000000000000
0000000000000000
0000000000000000
0000000000000000
0000000000000000
0000000000000000
0000000000000000
0000000000000000
0000000000000000
0000000000000000
000000000000000b
cbe5200000000000
0000000000000000
000000000000001a
2f2f1e5ffed70d00
0000000000000000
000000000000002d
9ab9b9ffffffffff
ffbc130000000000
0000000000000000
0000006effffffff
ffffffffffff0000
0000000000000000
000000000087ffff
fffffff0dbffffff
ffe3000000000000
0000000000000098
dbdbfffffff43100
43ffffffff870000
0000000000000000
00000087dbdbffff
ffff0b1ab2ffffff
db00000000000000
00000000000098db
dbdbe2fdfde450df
fdffffdb87000000
0000000000000000
000087dbdb87988d
fdfdfdfefffff887
9800000000000000
000000000000b9db
8700006efdfdfdff
ffffdb0000000000
0000000000000000
00000000000003ab
fefeffffdbdbb900
0000000000000000
0000000000000000
0000abfdfdfdffff
dbb9000000000000
0000000000000000
000000001a7bfefd
cbffffffdb310000
0000000000000000
0000000000000000
5dfdfe790dc5ffff
8700000000000000
0000000000000000
00000040effd4c08
c1ffffe600000000
0000000000000000
0000000000000085
febf0087ffffff6a
0000000000000000
0000000000000000
00000084fdbe51ff
ffff9a0000000000
0000000000000000
0000000000000099
fdc8ffffffa00000
0000000000000000
0000000000000000
00000070fdffffff
ff09000000000000
0000000000000000
0000000000000011
afffffd931000000
0000000000000000
0000000000000000
0000000087dbdb31
0000000000000000
0000000000000000
0000000000000000
98dbb90000000000
0000000000000000
0000000000000000
0000000000000000
0000000000000000
0000000000000000
