2020202020202020
2020202020202020
2020202020202020
2020202020202020
2020202020202020
2020202020202020
2020202020202020
2020202020202020
2020202020202020
2020202020202020
2020202020202020
2020202020202020
2020202020202020
2020202020202020
2020202020202020
2020202020202020
2020202020202020
2020202020202020
2020202020202020
2020202020202020
2020202020202020
2020202020202020
2020202020202020
2020202020202020
2020202020202020
2020202020202020
2020202020205f5f
5f20202020202020
2020202020202020
202020202020205f
5f5f5f5f5f5f2020
2020202020202020
2020202020205f5f
5f5f5f5f5f5f5f5f
5f5f202020202020
2020202020202020
5f5f5f5f5f5f2020
20205f5f5f202020
2020202020202020
202020205f5f5f5f
2020202020205f5f
5f20202020202020
202020202020205f
5f5f5f2020202020
20205f5f20202020
2020202020202020
2020205f5f202020
20202020205f5f20
2020202020202020
202020202020205f
2020202020202020
5f5f5f2020202020
2020202020202020
2020202020202020
2020205f5f5f2020
2020202020202020
2020202020202020
2020202020205f5f
5f20202020202020
2020202020202020
2020202020202020
20205f5f5f202020
2020202020202020
2020202020202020
2020202020205f5f
2020202020202020
2020202020202020
2020202020202020
205f5f2020202020
2020202020202020
2020202020202020
202020205f5f2020
2020202020202020
2020202020202020
202020202020205f
5f5f202020202020
2020202020202020
2020202020202020
2020205f5f202020
2020202020202020
2020202020202020
2020202020205f5f
2020202020202020
2020202020202020
2020202020202020
20205f2020202020
2020202020202020
2020202020202020
20202020205f5f20
2020202020202020
2020202020202020
2020202020202020
205f202020202020
2020202020202020
2020202020202020
2020202020202020
2020202020202020
2020202020202020
