2020202020202020
2020202020202020
2020202020202020
2020202020202020
2020202020202020
2020202020202020
2020202020202020
2020202020202020
2020202020202020
2020202020202020
2020202020202020
2020202020202020
2020202020202020
2020202020202020
2020202020202020
2020202020202020
2020202020202020
2020202020202020
2020202020202020
2020202020202020
2020202020202020
2020202020202020
2020202020202020
2020202020202020
2020202020202020
2020202020202020
2020201c1c1c9191
9120202020202020
2020202020202020
202020203e1c1c91
9191919191912020
2020202020202020
20202020201c9191
9191919191919191
9191202020202020
202020202020203e
9191919191912020
203e9191911c2020
2020202020202020
2020201c91919191
1c522020201c9191
9120202020202020
2020202020203e91
9191915220202020
201c91911c202020
2020202020202020
20201c91911c3e20
202020202c91911c
3e20202020202020
2020202020202c91
1c2020202020201c
9191912020202020
2020202020202020
2020202020202020
20202c9191912c20
2020202020202020
2020202020202020
2020202020209191
912c202020202020
2020202020202020
2020202020202020
201c919191202020
2020202020202020
2020202020202020
20202020201c9191
1c20202020202020
2020202020202020
2020202020202020
2c91911c20202020
2020202020202020
2020202020202020
2020201c91911c20
2020202020202020
2020202020202020
2020202020202091
9191202020202020
2020202020202020
2020202020202020
20201c9191202020
2020202020202020
2020202020202020
20202020201c9191
2c20202020202020
2020202020202020
2020202020202020
201c911c20202020
2020202020202020
2020202020202020
202020201c919120
2020202020202020
2020202020202020
2020202020202020
3e912c2020202020
2020202020202020
2020202020202020
2020202020202020
2020202020202020
2020202020202020
