2020202020202020
2020202020202020
2020202020202020
2020202020202020
2020202020202020
2020202020202020
2020202020202020
2020202020202020
2020202020202020
2020202020202020
2020202020202020
2020202020202020
2020202020202020
2020202020202020
2020202020202020
2020202020202020
2020202020202020
2020202020202020
2020202020202020
2020202020202020
ffff822020202020
2020202020202020
202020202020201c
7d7d2df2ffff2020
2020202020202020
202020202020207d
686868f7f7f7ffff
ff68202020202020
2020202020202020
20202068fff7f7ff
ffffffffffff2020
2020202020202020
202020208af7ffff
ffffffffffffffff
ffff202020202020
20202020202020ff
ffffffffffffff20
fffffffffff72020
2020202020202020
202020f7ffffffff
f7ff201c68f7ffff
ff20202020202020
202020202020ffff
fffffffffffff2ff
fff7fffff7202020
2020202020202020
2020f7fffff7ff68
fffffffffffffff7
ff20202020202020
202020202020ffff
f7202068fffffff7
ffffff2020202020
2020202020202020
2020202020202068
ffffffffffffff20
2020202020202020
2020202020202020
202068ffffffffff
ffff202020202020
2020202020202020
202020201c68ffff
fff7ffffffff2020
2020202020202020
2020202020202020
f2ffff6820f7ffff
f720202020202020
2020202020202020
202020b4fffff220
fffffff720202020
2020202020202020
2020202020202068
ff6820f7fffff7f2
2020202020202020
2020202020202020
20202068ff68ffff
ffff682020202020
2020202020202020
2020202020202068
fffff7ffffff2020
2020202020202020
2020202020202020
20202068fff7ffff
ff20202020202020
2020202020202020
2020202020202020
fff7fff7ff202020
2020202020202020
2020202020202020
20202020f7ffffff
2020202020202020
2020202020202020
2020202020202020
ffffff2020202020
2020202020202020
2020202020202020
2020202020202020
2020202020202020
2020202020202020
