2020202020202020
2020202020202020
2020202020202020
2020202020202020
2020202020202020
2020202020202020
2020202020202020
2020202020202020
2020202020202020
2020202020202020
2020202020202020
2020202020202020
2020202020202020
2020202020202020
2020202020202020
2020202020202020
2020202020202020
2020202020202020
2020202020202020
2020202020202020
ffff822020202020
2020202020202020
202020202020201c
7d7d2df2ffff2020
2020202020202020
202020202020207d
686868ffffffffff
ff68202020202020
2020202020202020
20202068e7ffffff
ffffffffffff2020
2020202020202020
2020202073ffffff
ffffffffffffffff
ffff202020202020
20202020202020e7
ffffffffffff7f20
ffe7ffffffff2020
2020202020202020
202020ffffffffff
ffff201c68ffffff
ff20202020202020
202020202020e7ff
fffffffffffff2ff
ffffffffff202020
2020202020202020
2020ffffffffe768
ffffffffdcffffff
e720202020202020
202020202020dcff
ff202068ffffffff
ffffff2020202020
2020202020202020
2020202020202068
ffffdcffffffdc20
2020202020202020
2020202020202020
202068ffffffffff
ffdc202020202020
2020202020202020
202020201c68ffff
ffffffffff7f2020
2020202020202020
2020202020202020
f2ffff6820ffffff
ff20202020202020
2020202020202020
202020b4fffff220
dcffffff20202020
2020202020202020
2020202020202068
ff6820fffffffff2
2020202020202020
2020202020202020
20202068ff68c3ff
ffff682020202020
2020202020202020
2020202020202068
ffc7ffffffff2020
2020202020202020
2020202020202020
20202068ffffffff
dc20202020202020
2020202020202020
2020202020202020
ffffffff7f202020
2020202020202020
2020202020202020
20202020ffffff7f
2020202020202020
2020202020202020
2020202020202020
e7ffdc2020202020
2020202020202020
2020202020202020
2020202020202020
2020202020202020
2020202020202020
