2020202020202020
2020202020202020
2020202020202020
2020202020202020
2020202020202020
2020202020202020
2020202020202020
2020202020202020
2020202020202020
2020202020202020
2020202020202020
2020202020202020
2020202020202020
2020202020202020
2020202020202020
2020202020202020
2020202020202020
2020202020202020
2020202020202020
2020202020202020
ffff822020202020
2020202020202020
202020202020201c
7d7d2df2ffff2020
2020202020202020
202020202020207d
686868ffffffffff
ff68202020202020
2020202020202020
20202068ffffffff
ffffffffffff2020
2020202020202020
202020202028ffff
ffffffc3c3ffffff
ffc3202020202020
202020202020204d
c3c3ffffffc33e20
e295ffffff282020
2020202020202020
20202028c3c3ffff
ffae201c68ffffff
c320202020202020
2020202020204dc3
c3c3c3aefffff2ff
ffffffc328202020
2020202020202020
202028c3c3284d68
ffffffffffffe628
4d20202020202020
2020202020205ec3
28202068ffffffff
ffffc32020202020
2020202020202020
2020202020202068
ffffffffc3c35e20
2020202020202020
2020202020202020
202068ffffffffff
c35e202020202020
2020202020202020
202020201c68ffff
ff70ffffc33e2020
2020202020202020
2020202020202020
f2ffff6820faffff
2820202020202020
2020202020202020
202020b4fffff220
c0ffff7020202020
2020202020202020
2020202020202068
ff682028fffffff2
2020202020202020
2020202020202020
20202068ff682cff
ffff682020202020
2020202020202020
2020202020202068
ff8670fffff22020
2020202020202020
2020202020202020
20202068ffffffff
a620202020202020
2020202020202020
2020202020202020
74ffff703e202020
2020202020202020
2020202020202020
2020202028c3c33e
2020202020202020
2020202020202020
2020202020202020
4dc35e2020202020
2020202020202020
2020202020202020
2020202020202020
2020202020202020
2020202020202020
