2020202020202020
2020202020202020
2020202020202020
2020202020202020
2020202020202020
2020202020202020
2020202020202020
2020202020202020
2020202020202020
2020202020202020
2020202020202020
2020202020202020
2020202020202020
2020202020202020
2020202020202020
2020202020202020
2020202020202020
2020202020202020
2020202020202020
2020202020202020
ffff822020202020
2020202020202020
202020202020201c
7d7d2df2ffff2020
2020202020202020
202020202020207d
686868ffffffe0e0
e068202020202020
2020202020202020
20202068ffffffe0
e0e0e0e0e0e02020
2020202020202020
202020208affe0e0
e0e0e0e0e0e0e0e0
e0e0202020202020
20202020202020ff
e0e0e0e0e0e0ff20
ffffe0e0e0ff2020
2020202020202020
202020ffe0e0e0e0
ffff201c68ffe0e0
e020202020202020
202020202020ffe0
e0e0e0fffffff2ff
ffffe0e0ff202020
2020202020202020
2020ffe0e0ffff68
ffffffffffe0e0ff
ff20202020202020
202020202020ffe0
ff202068ffffffff
e0e0e02020202020
2020202020202020
2020202020202068
ffffffe0e0e0ff20
2020202020202020
2020202020202020
202068ffffffe0e0
e0ff202020202020
2020202020202020
202020201c68ffff
ffffe0e0e0ff2020
2020202020202020
2020202020202020
f2ffff6820ffe0e0
ff20202020202020
2020202020202020
202020b4fffff220
ffe0e0ff20202020
2020202020202020
2020202020202068
ff6820ffe0e0fff2
2020202020202020
2020202020202020
20202068ff68ffe0
e0e0682020202020
2020202020202020
2020202020202068
ffffffe0e0ff2020
2020202020202020
2020202020202020
20202068ffffe0e0
ff20202020202020
2020202020202020
2020202020202020
ffffe0ffff202020
2020202020202020
2020202020202020
20202020ffe0e0ff
2020202020202020
2020202020202020
2020202020202020
ffe0ff2020202020
2020202020202020
2020202020202020
2020202020202020
2020202020202020
2020202020202020
