2020202020202020
2020202020202020
2020202020202020
2020202020202020
2020202020202020
2020202020202020
2020202020202020
2020202020202020
2020202020202020
2020202020202020
2020202020202020
2020202020202020
2020202020202020
2020202020202020
2020202020202020
2020202020202020
2020202020202020
2020202020202020
2020202020202020
2020202020202020
ffff822020202020
2020202020202020
202020202020201c
7d7d2df2ffff2020
2020202020202020
202020202020207d
686868ffffffffff
ff68202020202020
2020202020202020
20202068fbffffff
ffffffffffff2020
2020202020202020
2020202076ffffff
ffffffffffffffff
ffff202020202020
20202020202020fb
ffffffffffffcb20
fffbffffffff2020
2020202020202020
202020ffffffffff
ffff201c68ffffff
ff20202020202020
202020202020fbff
fffffffffffff2ff
ffffffffff202020
2020202020202020
2020fffffffffb68
ffffffffffffffff
fb20202020202020
202020202020ffff
ff202068ffffffff
ffffff2020202020
2020202020202020
2020202020202068
ffffffffffffff20
2020202020202020
2020202020202020
202068ffffffffff
ffff202020202020
2020202020202020
202020201c68ffff
ffffffffffcb2020
2020202020202020
2020202020202020
f2ffff6820ffffff
ff20202020202020
2020202020202020
202020b4fffff220
ffffffff20202020
2020202020202020
2020202020202068
ff6820fffffffff2
2020202020202020
2020202020202020
20202068ff68e9ff
ffff682020202020
2020202020202020
2020202020202068
ffffffffffff2020
2020202020202020
2020202020202020
20202068ffffffff
ff20202020202020
2020202020202020
2020202020202020
ffffffffcb202020
2020202020202020
2020202020202020
20202020ffffffcb
2020202020202020
2020202020202020
2020202020202020
fbffff2020202020
2020202020202020
2020202020202020
2020202020202020
2020202020202020
2020202020202020
