2020202020202020
2020202020202020
2020202020202020
2020202020202020
2020202020202020
2020202020202020
2020202020202020
2020202020202020
2020202020202020
2020202020202020
2020202020202020
2020202020202020
2020202020202020
2020202020202020
2020202020202020
2020202020202020
2020202020202020
2020202020202020
2020202020202020
2020202020202020
ffff822020202020
2020202020202020
202020202020201c
7d7d2df2ffff2020
2020202020202020
202020202020207d
686868ffffffe0e0
e068202020202020
2020202020202020
20202068ffffffe0
e0e0e0e0e0e02020
2020202020202020
202020206dd1e0e0
e0e0e0e0e0e0e0e0
e0e0202020202020
20202020202020ff
e0e0e0e0e0e07720
ffffe0e0e0d12020
2020202020202020
202020d1e0e0e0e0
ffff201c68ffe0e0
e020202020202020
202020202020ffe0
e0e0e0fffffff2ff
ffffe0e0d1202020
2020202020202020
2020d1e0e0d1ff68
ffffffffe0e0e0d1
ff20202020202020
202020202020e0e0
d1202068ffffffff
e0e0e02020202020
2020202020202020
2020202020202068
ffffe0e0e0e0e020
2020202020202020
2020202020202020
202068ffffffe0e0
e0e0202020202020
2020202020202020
202020201c68ffff
ffffe0e0e0772020
2020202020202020
2020202020202020
f2ffff6820ffe0e0
d120202020202020
2020202020202020
202020b4fffff220
e0e0e0ff20202020
2020202020202020
2020202020202068
ff6820d1e0e0fff2
2020202020202020
2020202020202020
20202068ff688ee0
e0e0682020202020
2020202020202020
2020202020202068
ffbfffe0e0ff2020
2020202020202020
2020202020202020
20202068ffffe0e0
e020202020202020
2020202020202020
2020202020202020
d6ffe0ff77202020
2020202020202020
2020202020202020
20202020d1e0e077
2020202020202020
2020202020202020
2020202020202020
ffe0e02020202020
2020202020202020
2020202020202020
2020202020202020
2020202020202020
2020202020202020
