2020202020202020
2020202020202020
2020202020202020
2020202020202020
2020202020202020
2020202020202020
2020202020202020
2020202020202020
2020202020202020
2020202020202020
2020202020202020
2020202020202020
2020202020202020
2020202020202020
2020202020202020
2020202020202020
2020202020202020
2020202020202020
2020202020202020
2020202020202020
ffff822020202020
2020202020202020
202020202020201c
7d7d2df2ffff2020
2020202020202020
202020202020207d
686868ffffffa7a7
ff68202020202020
2020202020202020
20202068ffffffff
a7ffffffffff2020
2020202020202020
202020202020a7ff
ffa7a75f5fbcffff
ff5f202020202020
2020202020202020
5f5fa7ffff5f2020
c468ffffff202020
2020202020202020
202020205f5ffeff
ff68201c68ffffa7
5f20202020202020
202020202020205f
5f5f5f68fffff2ff
ffffa75f20202020
2020202020202020
2020205f5f202068
ffffffffffa78220
2020202020202020
202020202020205f
20202068ffffffff
a7bb5f2020202020
2020202020202020
2020202020202068
ffffffa75f5f2020
2020202020202020
2020202020202020
202068ffffffffa7
5f20202020202020
2020202020202020
202020201c68ffff
ff68ffff5f202020
2020202020202020
2020202020202020
f2ffff6820f2ffa7
2020202020202020
2020202020202020
202020b4fffff220
82ffff6820202020
2020202020202020
2020202020202068
ff682020a7fffff2
2020202020202020
2020202020202020
20202068ff6820ff
ffff682020202020
2020202020202020
2020202020202068
ff6868fffff22020
2020202020202020
2020202020202020
20202068ffffffff
6820202020202020
2020202020202020
2020202020202020
68ffa76820202020
2020202020202020
2020202020202020
20202020205f5f20
2020202020202020
2020202020202020
2020202020202020
205f202020202020
2020202020202020
2020202020202020
2020202020202020
2020202020202020
2020202020202020
