2020202020202020
2020202020202020
2020202020202020
2020202020202020
2020202020202020
2020202020202020
2020202020202020
2020202020202020
2020202020202020
2020202020202020
2020202020202020
2020202020202020
2020202020202020
2020202020202020
2020202020202020
2020202020202020
2020202020202020
2020202020202020
2020202020202020
2020202020202020
ffff822020202020
2020202020202020
202020202020201c
7d7d2df2ffff2020
2020202020202020
202020202020207d
686868ffffffffff
ff68202020202020
2020202020202020
20202068ffffffff
ffffffffffff2020
2020202020202020
202020202088ffff
fffffffbfbffffff
fffb202020202020
20202020202020a6
fbfbfffffffb3f20
e0eeffffff882020
2020202020202020
20202088fbfbffff
ffca201c68ffffff
fb20202020202020
202020202020a6fb
fbfbfbcafffff2ff
fffffffb88202020
2020202020202020
202088fbfb88a668
ffffffffffffff88
a620202020202020
202020202020c1fb
88202068ffffffff
fffffb2020202020
2020202020202020
2020202020202068
fffffffffbfbc120
2020202020202020
2020202020202020
202068ffffffffff
fbc1202020202020
2020202020202020
202020201c68ffff
ffd0fffffb3f2020
2020202020202020
2020202020202020
f2ffff6820ffffff
8820202020202020
2020202020202020
202020b4fffff220
ffffffd020202020
2020202020202020
2020202020202068
ff682088fffffff2
2020202020202020
2020202020202020
20202068ff6859ff
ffff682020202020
2020202020202020
2020202020202068
ff87d0ffffff2020
2020202020202020
2020202020202020
20202068ffffffff
ff20202020202020
2020202020202020
2020202020202020
a1ffffd03f202020
2020202020202020
2020202020202020
2020202088fbfb3f
2020202020202020
2020202020202020
2020202020202020
a6fbc12020202020
2020202020202020
2020202020202020
2020202020202020
2020202020202020
2020202020202020
