2020202020202020
2020202020202020
2020202020202020
2020202020202020
2020202020202020
2020202020202020
2020202020202020
2020202020202020
2020202020202020
2020202020202020
2020202020202020
2020202020202020
2020202020202020
2020202020202020
2020202020202020
2020202020202020
2020202020202020
2020202020202020
2020202020202020
2020202020202020
ffff822020202020
2020202020202020
202020202020201c
7d7d2df2ffff2020
2020202020202020
202020202020207d
686868fbfbfbffff
ff68202020202020
2020202020202020
20202068fffbfbff
ffffffffffff2020
2020202020202020
2020202076fbffff
ffffffffffffffff
ffff202020202020
20202020202020ff
ffffffffffffc520
fffffffffffb2020
2020202020202020
202020fbffffffff
fbff201c68fbffff
ff20202020202020
202020202020ffff
fffffffffffff2ff
fffbfffffb202020
2020202020202020
2020fbfffffbff68
fffffffffffffffb
ff20202020202020
202020202020ffff
fb202068fffffffb
ffffff2020202020
2020202020202020
2020202020202068
ffffffffffffff20
2020202020202020
2020202020202020
202068ffffffffff
ffff202020202020
2020202020202020
202020201c68ffff
fffbffffffc52020
2020202020202020
2020202020202020
f2ffff6820fbffff
fb20202020202020
2020202020202020
202020b4fffff220
fffffffb20202020
2020202020202020
2020202020202068
ff6820fbfffffbf2
2020202020202020
2020202020202020
20202068ff68ddff
ffff682020202020
2020202020202020
2020202020202068
fffffbfffffb2020
2020202020202020
2020202020202020
20202068fffbffff
ff20202020202020
2020202020202020
2020202020202020
fffbfffbc5202020
2020202020202020
2020202020202020
20202020fbffffc5
2020202020202020
2020202020202020
2020202020202020
ffffff2020202020
2020202020202020
2020202020202020
2020202020202020
2020202020202020
2020202020202020
