2020202020202020
2020202020202020
2020202020202020
2020202020202020
2020202020202020
2020202020202020
2020202020202020
2020202020202020
2020202020202020
2020202020202020
2020202020202020
2020202020202020
2020202020202020
2020202020202020
2020202020202020
2020202020202020
2020202020202020
2020202020202020
2020202020202020
2020202020202020
ffff822020202020
2020202020202020
202020202020201c
7d7d2df2ffff2020
2020202020202020
202020202020207d
686868fbfbfbffff
ff68202020202020
2020202020202020
20202068fffbfbff
ffffffffffff2020
2020202020202020
202020202098ffff
ffffffffffffffff
ffff202020202020
20202020202020f3
ffffffffffff6e20
ffffffffff982020
2020202020202020
20202098ffffffff
fbff201c68fbffff
ff20202020202020
202020202020f3ff
fffffffffffff2ff
fffbffff98202020
2020202020202020
202098ffff98f368
ffffffffffffff98
f320202020202020
202020202020ffff
98202068fffffffb
ffffff2020202020
2020202020202020
2020202020202068
ffffffffffffff20
2020202020202020
2020202020202020
202068ffffffffff
ffff202020202020
2020202020202020
202020201c68ffff
ffe0ffffff6e2020
2020202020202020
2020202020202020
f2ffff6820fbffff
9820202020202020
2020202020202020
202020b4fffff220
ffffffe020202020
2020202020202020
2020202020202068
ff682098fffffbf2
2020202020202020
2020202020202020
20202068ff6873ff
ffff682020202020
2020202020202020
2020202020202068
ffb6e0ffffff2020
2020202020202020
2020202020202020
20202068fffbffff
ff20202020202020
2020202020202020
2020202020202020
bbfbffe06e202020
2020202020202020
2020202020202020
2020202098ffff6e
2020202020202020
2020202020202020
2020202020202020
f3ffff2020202020
2020202020202020
2020202020202020
2020202020202020
2020202020202020
2020202020202020
