2020202020202020
2020202020202020
2020202020202020
2020202020202020
2020202020202020
2020202020202020
2020202020202020
2020202020202020
2020202020202020
2020202020202020
2020202020202020
2020202020202020
2020202020202020
2020202020202020
2020202020202020
2020202020202020
2020202020202020
2020202020202020
2020202020202020
2020202020202020
ffff822020202020
2020202020202020
202020202020201c
7d7d2df2ffff2020
2020202020202020
202020202020207d
686868fbfbfbd9d9
ff68202020202020
2020202020202020
20202068fffbfbff
d9ffffffffff2020
2020202020202020
20202020201cd9ff
ffd9d99191eeffff
ff91202020202020
202020202020203e
9191d9ffff912020
c486ffffff1c2020
2020202020202020
2020201c9191ffff
fb9a201c68fbffd9
9120202020202020
2020202020203e91
9191919afffff2ff
fffbd9911c202020
2020202020202020
20201c91911c3e68
ffffffffffd9b41c
3e20202020202020
2020202020202c91
1c202068fffffffb
d9ed912020202020
2020202020202020
2020202020202068
ffffffd991912c20
2020202020202020
2020202020202020
202068ffffffffd9
912c202020202020
2020202020202020
202020201c68ffff
ff64ffff91202020
2020202020202020
2020202020202020
f2ffff6820eeffd9
1c20202020202020
2020202020202020
202020b4fffff220
8effff6420202020
2020202020202020
2020202020202068
ff68201cd9fffbf2
2020202020202020
2020202020202020
20202068ff6820ff
ffff682020202020
2020202020202020
2020202020202068
ff6864fffff22020
2020202020202020
2020202020202020
20202068fffbffff
7420202020202020
2020202020202020
2020202020202020
68fbd96420202020
2020202020202020
2020202020202020
202020201c919120
2020202020202020
2020202020202020
2020202020202020
3e912c2020202020
2020202020202020
2020202020202020
2020202020202020
2020202020202020
2020202020202020
