2020202020202020
2020202020202020
2020202020202020
2020202020202020
2020202020202020
2020202020202020
2020202020202020
2020202020202020
2020202020202020
2020202020202020
2020202020202020
2020202020202020
2020202020202020
2020202020202020
2020202020202020
2020202020202020
2020202020202020
2020202020202020
2020202020202020
2020202020202020
ffff822020202020
2020202020202020
202020202020201c
7d7d2df2ffff2020
2020202020202020
202020202020207d
686868ffffffe7e7
e768202020202020
2020202020202020
20202068ffffffe7
e7e7e7e7e7e72020
2020202020202020
2020202086ffe7e7
e7e7e7e7e7e7e7e7
e7e7202020202020
20202020202020ff
e7e7e7e7e7e7ff20
ffffe7e7e7ff2020
2020202020202020
202020ffe7e7e7e7
ffe7201c68ffe7e7
e720202020202020
202020202020ffe7
e7e7e7e7fffff2ff
ffffe7e7ff202020
2020202020202020
2020ffe7e7ffff68
ffffffffe7e7e7ff
ff20202020202020
202020202020e7e7
ff202068ffffffff
e7e7e72020202020
2020202020202020
2020202020202068
ffffe7e7e7e7e720
2020202020202020
2020202020202020
202068ffffffe7e7
e7e7202020202020
2020202020202020
202020201c68ffff
ffffe7e7e7ff2020
2020202020202020
2020202020202020
f2ffff6820ffe7e7
ff20202020202020
2020202020202020
202020b4fffff220
e7e7e7ff20202020
2020202020202020
2020202020202068
ff6820ffe7e7fff2
2020202020202020
2020202020202020
20202068ff68ffe7
e7e7682020202020
2020202020202020
2020202020202068
ffffffe7e7ff2020
2020202020202020
2020202020202020
20202068ffffe7e7
e720202020202020
2020202020202020
2020202020202020
ffffe7ffff202020
2020202020202020
2020202020202020
20202020ffe7e7ff
2020202020202020
2020202020202020
2020202020202020
ffe7e72020202020
2020202020202020
2020202020202020
2020202020202020
2020202020202020
2020202020202020
