2020202020202020
2020202020202020
2020202020202020
2020202020202020
2020202020202020
2020202020202020
2020202020202020
2020202020202020
2020202020202020
2020202020202020
2020202020202020
2020202020202020
2020202020202020
2020202020202020
2020202020202020
2020202020202020
2020202020202020
2020202020202020
2020202020202020
2020202020202020
ffff822020202020
2020202020202020
202020202020201c
7d7d2df2ffff2020
2020202020202020
202020202020207d
686868ffffffffff
ff68202020202020
2020202020202020
20202068ffffffff
ffffffffffff2020
2020202020202020
202020202070ffff
ffffffe3e3ffffff
ffe3202020202020
2020202020202079
e3e3ffffffe35a20
fec1ffffff702020
2020202020202020
20202070e3e3ffff
ffbb201c68ffffff
e320202020202020
20202020202079e3
e3e3e3bbfffff2ff
ffffffe370202020
2020202020202020
202070e3e3707968
ffffffffffffff70
7920202020202020
202020202020a6e3
70202068ffffffff
ffffe32020202020
2020202020202020
2020202020202068
ffffffffe3e3a620
2020202020202020
2020202020202020
202068ffffffffff
e3a6202020202020
2020202020202020
202020201c68ffff
ffb8ffffe35a2020
2020202020202020
2020202020202020
f2ffff6820ffffff
7020202020202020
2020202020202020
202020b4fffff220
ffffffb820202020
2020202020202020
2020202020202068
ff682070fffffff2
2020202020202020
2020202020202020
20202068ff6841ff
ffff682020202020
2020202020202020
2020202020202068
ffa2b8ffffff2020
2020202020202020
2020202020202020
20202068ffffffff
ee20202020202020
2020202020202020
2020202020202020
89ffffb85a202020
2020202020202020
2020202020202020
2020202070e3e35a
2020202020202020
2020202020202020
2020202020202020
79e3a62020202020
2020202020202020
2020202020202020
2020202020202020
2020202020202020
2020202020202020
