2020202020202020
2020202020202020
2020202020202020
2020202020202020
2020202020202020
2020202020202020
2020202020202020
2020202020202020
2020202020202020
2020202020202020
2020202020202020
2020202020202020
2020202020202020
2020202020202020
2020202020202020
2020202020202020
2020202020202020
2020202020202020
2020202020202020
2020202020202020
ffff822020202020
2020202020202020
202020202020201c
7d7d2df2ffff2020
2020202020202020
202020202020207d
686868ffffffffff
ff68202020202020
2020202020202020
20202068ffffffff
ffffffffffff2020
2020202020202020
2020202052a4ffff
ffffffffffffffff
ffff202020202020
20202020202020ff
ffffffffffff5320
e0ffffffffa42020
2020202020202020
202020a4ffffffff
ffff201c68ffffff
ff20202020202020
202020202020ffff
fffffffffffff2ff
ffffffffa4202020
2020202020202020
2020a4ffffa4ff68
ffffffffffffffa4
ff20202020202020
202020202020ffff
a4202068ffffffff
ffffff2020202020
2020202020202020
2020202020202068
ffffffffffffff20
2020202020202020
2020202020202020
202068ffffffffff
ffff202020202020
2020202020202020
202020201c68ffff
ffecffffff532020
2020202020202020
2020202020202020
f2ffff6820ffffff
a420202020202020
2020202020202020
202020b4fffff220
ffffffec20202020
2020202020202020
2020202020202068
ff6820a4fffffff2
2020202020202020
2020202020202020
20202068ff687fff
ffff682020202020
2020202020202020
2020202020202068
ff9becffffff2020
2020202020202020
2020202020202020
20202068ffffffff
ff20202020202020
2020202020202020
2020202020202020
c7ffffec53202020
2020202020202020
2020202020202020
20202020a4ffff53
2020202020202020
2020202020202020
2020202020202020
ffffff2020202020
2020202020202020
2020202020202020
2020202020202020
2020202020202020
2020202020202020
