2020202020202020
2020202020202020
2020202020202020
2020202020202020
2020202020202020
2020202020202020
2020202020202020
2020202020202020
2020202020202020
2020202020202020
2020202020202020
2020202020202020
2020202020202020
2020202020202020
2020202020202020
2020202020202020
2020202020202020
2020202020202020
2020202020202020
2020202020202020
ffff822020202020
2020202020202020
202020202020201c
7d7d2df2ffff2020
2020202020202020
202020202020207d
686868e7e7e7e7e7
e768202020202020
2020202020202020
20202068ffe7e7e7
e7e7e7e7e7e72020
2020202020202020
202020208ae7e7e7
e7e7e7e7e7e7e7e7
e7e7202020202020
20202020202020ff
e7e7e7e7e7e7ff20
ffffe7e7e7e72020
2020202020202020
202020e7e7e7e7e7
e7e7201c68e7e7e7
e720202020202020
202020202020ffe7
e7e7e7e7fffff2ff
ffe7e7e7e7202020
2020202020202020
2020e7e7e7e7ff68
ffffffffffe7e7e7
ff20202020202020
202020202020ffe7
e7202068ffffffe7
e7e7e72020202020
2020202020202020
2020202020202068
ffffffe7e7e7ff20
2020202020202020
2020202020202020
202068ffffffe7e7
e7ff202020202020
2020202020202020
202020201c68ffff
ffe7e7e7e7ff2020
2020202020202020
2020202020202020
f2ffff6820e7e7e7
e720202020202020
2020202020202020
202020b4fffff220
ffe7e7e720202020
2020202020202020
2020202020202068
ff6820e7e7e7e7f2
2020202020202020
2020202020202020
20202068ff68e7e7
e7e7682020202020
2020202020202020
2020202020202068
ffffe7e7e7ff2020
2020202020202020
2020202020202020
20202068ffe7e7e7
ff20202020202020
2020202020202020
2020202020202020
e7e7e7e7ff202020
2020202020202020
2020202020202020
20202020e7e7e7ff
2020202020202020
2020202020202020
2020202020202020
ffe7ff2020202020
2020202020202020
2020202020202020
2020202020202020
2020202020202020
2020202020202020
